{
  "version": "1.0",
  "truncation": null,
  "padding": null,
  "added_tokens": [
    {
      "id": 2000,
      "content": "[SEP]",
      "single_word": false,
      "lstrip": false,
      "rstrip": false,
      "normalized": false,
      "special": true
    },
    {
      "id": 2001,
      "content": "[UNK]",
      "single_word": false,
      "lstrip": false,
      "rstrip": false,
      "normalized": false,
      "special": true
    },
    {
      "id": 2002,
      "content": "[PAD]",
      "single_word": false,
      "lstrip": false,
      "rstrip": false,
      "normalized": false,
      "special": true
    },
    {
      "id": 2003,
      "content": "[CLS]",
      "single_word": false,
      "lstrip": false,
      "rstrip": false,
      "normalized": false,
      "special": true
    }
  ],
  "normalizer": null,
  "pre_tokenizer": {
    "type": "ByteLevel",
    "add_prefix_space": false,
    "trim_offsets": true,
    "use_regex": true
  },
  "post_processor": {
    "type": "ByteLevel",
    "add_prefix_space": true,
    "trim_offsets": false,
    "use_regex": true
  },
  "decoder": {
    "type": "ByteLevel",
    "add_prefix_space": true,
    "trim_offsets": true,
    "use_regex": true
  },
  "model": {
    "type": "BPE",
    "dropout": null,
    "unk_token": null,
    "continuing_subword_prefix": null,
    "end_of_word_suffix": null,
    "fuse_unk": false,
    "byte_fallback": false,
    "ignore_merges": false,
    "vocab": {
      "!": 0,
      "\"": 1,
      "#": 2,
      "$": 3,
      "%": 4,
      "&": 5,
      "'": 6,
      "(": 7,
      ")": 8,
      "*": 9,
      "+": 10,
      ",": 11,
      "-": 12,
      ".": 13,
      "/": 14,
      "0": 15,
      "1": 16,
      "2": 17,
      "3": 18,
      "4": 19,
      "5": 20,
      "6": 21,
      "7": 22,
      "8": 23,
      "9": 24,
      ":": 25,
      ";": 26,
      "<": 27,
      "=": 28,
      ">": 29,
      "?": 30,
      "@": 31,
      "A": 32,
      "B": 33,
      "C": 34,
      "D": 35,
      "E": 36,
      "F": 37,
      "G": 38,
      "H": 39,
      "I": 40,
      "J": 41,
      "K": 42,
      "L": 43,
      "M": 44,
      "N": 45,
      "O": 46,
      "P": 47,
      "Q": 48,
      "R": 49,
      "S": 50,
      "T": 51,
      "U": 52,
      "V": 53,
      "W": 54,
      "X": 55,
      "Y": 56,
      "Z": 57,
      "[": 58,
      "\\": 59,
      "]": 60,
      "^": 61,
      "_": 62,
      "`": 63,
      "a": 64,
      "b": 65,
      "c": 66,
      "d": 67,
      "e": 68,
      "f": 69,
      "g": 70,
      "h": 71,
      "i": 72,
      "j": 73,
      "k": 74,
      "l": 75,
      "m": 76,
      "n": 77,
      "o": 78,
      "p": 79,
      "q": 80,
      "r": 81,
      "s": 82,
      "t": 83,
      "u": 84,
      "v": 85,
      "w": 86,
      "x": 87,
      "y": 88,
      "z": 89,
      "{": 90,
      "|": 91,
      "}": 92,
      "~": 93,
      "¡": 94,
      "¢": 95,
      "£": 96,
      "¤": 97,
      "¥": 98,
      "¦": 99,
      "§": 100,
      "¨": 101,
      "©": 102,
      "ª": 103,
      "«": 104,
      "¬": 105,
      "®": 106,
      "¯": 107,
      "°": 108,
      "±": 109,
      "²": 110,
      "³": 111,
      "´": 112,
      "µ": 113,
      "¶": 114,
      "·": 115,
      "¸": 116,
      "¹": 117,
      "º": 118,
      "»": 119,
      "¼": 120,
      "½": 121,
      "¾": 122,
      "¿": 123,
      "À": 124,
      "Á": 125,
      "Â": 126,
      "Ã": 127,
      "Ä": 128,
      "Å": 129,
      "Æ": 130,
      "Ç": 131,
      "È": 132,
      "É": 133,
      "Ê": 134,
      "Ë": 135,
      "Ì": 136,
      "Í": 137,
      "Î": 138,
      "Ï": 139,
      "Ð": 140,
      "Ñ": 141,
      "Ò": 142,
      "Ó": 143,
      "Ô": 144,
      "Õ": 145,
      "Ö": 146,
      "×": 147,
      "Ø": 148,
      "Ù": 149,
      "Ú": 150,
      "Û": 151,
      "Ü": 152,
      "Ý": 153,
      "Þ": 154,
      "ß": 155,
      "à": 156,
      "á": 157,
      "â": 158,
      "ã": 159,
      "ä": 160,
      "å": 161,
      "æ": 162,
      "ç": 163,
      "è": 164,
      "é": 165,
      "ê": 166,
      "ë": 167,
      "ì": 168,
      "í": 169,
      "î": 170,
      "ï": 171,
      "ð": 172,
      "ñ": 173,
      "ò": 174,
      "ó": 175,
      "ô": 176,
      "õ": 177,
      "ö": 178,
      "÷": 179,
      "ø": 180,
      "ù": 181,
      "ú": 182,
      "û": 183,
      "ü": 184,
      "ý": 185,
      "þ": 186,
      "ÿ": 187,
      "Ā": 188,
      "ā": 189,
      "Ă": 190,
      "ă": 191,
      "Ą": 192,
      "ą": 193,
      "Ć": 194,
      "ć": 195,
      "Ĉ": 196,
      "ĉ": 197,
      "Ċ": 198,
      "ċ": 199,
      "Č": 200,
      "č": 201,
      "Ď": 202,
      "ď": 203,
      "Đ": 204,
      "đ": 205,
      "Ē": 206,
      "ē": 207,
      "Ĕ": 208,
      "ĕ": 209,
      "Ė": 210,
      "ė": 211,
      "Ę": 212,
      "ę": 213,
      "Ě": 214,
      "ě": 215,
      "Ĝ": 216,
      "ĝ": 217,
      "Ğ": 218,
      "ğ": 219,
      "Ġ": 220,
      "ġ": 221,
      "Ģ": 222,
      "ģ": 223,
      "Ĥ": 224,
      "ĥ": 225,
      "Ħ": 226,
      "ħ": 227,
      "Ĩ": 228,
      "ĩ": 229,
      "Ī": 230,
      "ī": 231,
      "Ĭ": 232,
      "ĭ": 233,
      "Į": 234,
      "į": 235,
      "İ": 236,
      "ı": 237,
      "Ĳ": 238,
      "ĳ": 239,
      "Ĵ": 240,
      "ĵ": 241,
      "Ķ": 242,
      "ķ": 243,
      "ĸ": 244,
      "Ĺ": 245,
      "ĺ": 246,
      "Ļ": 247,
      "ļ": 248,
      "Ľ": 249,
      "ľ": 250,
      "Ŀ": 251,
      "ŀ": 252,
      "Ł": 253,
      "ł": 254,
      "Ń": 255,
      "à¤": 256,
      "à¥": 257,
      "Ġà¤": 258,
      "à¤¾": 259,
      "à¥į": 260,
      "à¤°": 261,
      "à¤¨": 262,
      "à¤¿": 263,
      "à¤¤": 264,
      "à¥ĩ": 265,
      "à¤ķ": 266,
      "à¤®": 267,
      "à¥ĭ": 268,
      "à¤¯": 269,
      "à¥ģ": 270,
      "à¥Ģ": 271,
      "à¤²": 272,
      "à¤µ": 273,
      "à¤¸": 274,
      "à¤¹": 275,
      "à¤¦": 276,
      "à¤ª": 277,
      "Ġà¤¸": 278,
      "Ġà¤ķ": 279,
      "à¤Ĥ": 280,
      "Ġà¤ª": 281,
      "à¤Ĺ": 282,
      "à¥Ī": 283,
      "Ġà¤®": 284,
      "à¤ľ": 285,
      "à¤·": 286,
      "Ġà¤¹": 287,
      "à¥Ĥ": 288,
      "Ġà¤Ń": 289,
      "à¤£": 290,
      "à¤¶": 291,
      "Ġà¤Ĺ": 292,
      "Ġà¤¤": 293,
      "à¤Ń": 294,
      "Ġà¤µ": 295,
      "ÂŃ": 296,
      "Ġà¤¬": 297,
      "à¤Ľ": 298,
      "Ġà¤¦": 299,
      "à¤§": 300,
      "Ġà¤ħ": 301,
      "à¤¬": 302,
      "à¤¥": 303,
      "Ġà¤¶": 304,
      "à¤ļ": 305,
      "Ġà¤ľ": 306,
      "Ġà¤¨": 307,
      "à¤Ł": 308,
      "Ġà¤°": 309,
      "à¤Ī": 310,
      "Ġà¥": 311,
      "Ġà¤Ĺà¤°": 312,
      "à¤ı": 313,
      "à¤ģ": 314,
      "à¥ĥ": 315,
      "Ġà¤Ĩ": 316,
      "Ġà¤ī": 317,
      "Ġà¤¯": 318,
      "à¤ĸ": 319,
      "Ġà¤²": 320,
      "à¤¹à¤°": 321,
      "à¤¡": 322,
      "à¤ĥ": 323,
      "à¤ī": 324,
      "Ġà¤Ńà¤¨": 325,
      "à¤ĩ": 326,
      "Ġà¤ļ": 327,
      "à¥Į": 328,
      "à¤°à¤®": 329,
      "Ġà¤ķà¤°": 330,
      "à¤Ĺà¤µ": 331,
      "à¤°à¤ķ": 332,
      "Ġà¥¤": 333,
      "à¤«": 334,
      "à¤ħ": 335,
      "à¤ł": 336,
      "âĢ": 337,
      "Ġà¤¸à¤®": 338,
      "à¤ıà¤ķ": 339,
      "à¤¯à¤¸": 340,
      "à¤¾à¤ģ": 341,
      "Ġà¤ĩ": 342,
      "à¤¨à¤ķ": 343,
      "à¥ĩà¤Ĥ": 344,
      "à¤°à¤¹": 345,
      "à¤ŀ": 346,
      "Ġà¤Ľ": 347,
      "à¥ĭà¤Ĥ": 348,
      "Ġà¤Ńà¤Ĺà¤µ": 349,
      "à¤¾à¤Ĥ": 350,
      "à¤°à¤¤": 351,
      "à¤°à¤£": 352,
      "Ġà¤ªà¤¨": 353,
      "Ġà¤¥": 354,
      "Ġà¤ªà¤°": 355,
      "à¤¾ÂŃ": 356,
      "à¤Ĩ": 357,
      "Ġà¤§": 358,
      "à¤µà¤°": 359,
      "à¤ªà¤¨": 360,
      "à¤¦à¤Ľ": 361,
      "à¤ķà¤°": 362,
      "à¤µà¤¤": 363,
      "à¥¤": 364,
      "à¤Ĺà¤°": 365,
      "Ġà¤ħà¤¨": 366,
      "à¥Īà¤Ĥ": 367,
      "à¤ĺ": 368,
      "Â·": 369,
      "Ġà¤®à¤¨": 370,
      "à¤ªà¤°": 371,
      "à¤¯à¤ķ": 372,
      "à¥įâĢ": 373,
      "Ķà¤°": 374,
      "à¤¸à¤ķ": 375,
      "à¤¢": 376,
      "Ġà¤®à¤¹": 377,
      "Ġà¤ı": 378,
      "Ġà¤ĸ": 379,
      "à¥įâĢĮ": 380,
      "Ġà¤Ķà¤°": 381,
      "à¤¸à¤®": 382,
      "Ġà¥¥": 383,
      "à¤ªà¤¤": 384,
      "à¤¿à¤Ĥ": 385,
      "à¤¯à¤®": 386,
      "à¤īà¤¨": 387,
      "à¤ľà¤¨": 388,
      "à¤°à¤¸": 389,
      "à¤Ļ": 390,
      "Ġà¤«": 391,
      "Ġà¥¤à¥¤": 392,
      "à¤µà¤¨": 393,
      "Ġà¤°à¤¹": 394,
      "à¤Ńà¤¨": 395,
      "Ġà¤ĺ": 396,
      "à¤Ńà¤¯": 397,
      "à¤®à¤¨": 398,
      "Ġà¤ħà¤°": 399,
      "Ġà¤Ĩà¤«": 400,
      "à¤¸à¤²": 401,
      "Ġà¤¸à¤ķ": 402,
      "à¤¤à¤®": 403,
      "à¤¯à¤¤": 404,
      "Ġà¤¬à¤¨": 405,
      "à¤¸à¤°": 406,
      "âĢ¢": 407,
      "Ġà¤¸à¤¬": 408,
      "à¤¨à¤®": 409,
      "à¤°à¤¦": 410,
      "Ġà¤Ńà¤¯": 411,
      "à¤¿ÂŃ": 412,
      "à¤¨à¤¨": 413,
      "à¤µà¤¸": 414,
      "§à¥": 415,
      "à¤¯à¤¨": 416,
      "à¥ĭÂŃ": 417,
      "à¤²à¤ķ": 418,
      "à¤®à¤¹": 419,
      "à¤¤à¤°": 420,
      "à¤Ľà¤¨": 421,
      "à¤µà¤ķ": 422,
      "à¤µà¤²": 423,
      "à¤®à¤ķ": 424,
      "à¤ªà¤Ľ": 425,
      "Ġà¤īà¤¨": 426,
      "Ġà¤ł": 427,
      "à¤²à¤®": 428,
      "à¥¦": 429,
      "à¤¸à¤¨": 430,
      "à¤Ŀ": 431,
      "Ġà¤¯à¤¹": 432,
      "à¥Ģà¤Ĥ": 433,
      "à¤ıà¤°": 434,
      "à¤°à¤µ": 435,
      "à¤¼": 436,
      "à¤®à¤£": 437,
      "à¤¦à¤°": 438,
      "à¤°à¤²": 439,
      "Ġà¤ķà¤¹": 440,
      "à¤¤à¤ķ": 441,
      "Ġà¤īà¤¤": 442,
      "Ġà¤µà¤°": 443,
      "à¤°à¤¨": 444,
      "à¤ķà¤²": 445,
      "à¤¤à¤¨": 446,
      "Ġà¤ķà¤°à¤¨": 447,
      "Ġà¤ľà¤¨": 448,
      "à¤Ĺà¤¤": 449,
      "Ġà¤Ńà¤ıà¤ķ": 450,
      "à¥Įà¤Ĥ": 451,
      "à¤°à¤Ń": 452,
      "Ġà¤ıà¤ķ": 453,
      "Ġà¤¤à¤¥": 454,
      "à¤ĩà¤¨": 455,
      "ÂŃâĢ¢": 456,
      "Ġà¤¸à¤¤": 457,
      "à¤ħà¤¨": 458,
      "à¤£à¤ķ": 459,
      "à¤ªà¤®": 460,
      "Ġà¤ªà¤°à¤®": 461,
      "Ġà¤Ńà¤ķ": 462,
      "Ġà¤¯à¤¸": 463,
      "à¤ļà¤¨": 464,
      "à¥ģà¤ģ": 465,
      "à¤ªà¤¦": 466,
      "Ġà¤¤à¤¤": 467,
      "Ġà¤¸à¤°": 468,
      "à¤ķà¤®": 469,
      "Ġà¥§à¥": 470,
      "à¤®à¤¸": 471,
      "à¤ªà¤¸": 472,
      "à¤¨à¤²": 473,
      "à¤¯à¤¹": 474,
      "Ġà¤ħà¤§": 475,
      "à¤ķà¤¨": 476,
      "à¤®à¤¦": 477,
      "Ġà¤µà¤¹": 478,
      "à¤¾,": 479,
      "Ġà¤ĩà¤¸": 480,
      "à¤¹à¤¨": 481,
      "à¤ªà¤ķ": 482,
      "Ġà¤ħà¤¤": 483,
      "Ġà¤²à¤Ĺ": 484,
      "à¥ĩÂŃ": 485,
      "Ġà¤§à¤°": 486,
      "à¤¤à¤¸": 487,
      "à¤¿à¤ĥ": 488,
      "Ġà¤¨à¤¹": 489,
      "Ġà¤µà¤¸": 490,
      "Ġà¤ĩà¤¤": 491,
      "à¤¾à¤ĥ": 492,
      "à¤¤à¤¤": 493,
      "Ġà¤ħà¤ªà¤¨": 494,
      "à¤®à¤²": 495,
      "Ġà¤ªà¤¤": 496,
      "Ġà¤Ľà¤¨": 497,
      "Ġà¤Ĩà¤¤": 498,
      "à¤¤à¤µ": 499,
      "Ġà¥«": 500,
      "à¤°à¤ľ": 501,
      "à¤Ńà¤Ĺà¤µ": 502,
      "Ġà¤¬à¤¸": 503,
      "à¤°à¤¯": 504,
      "Ġà¤¶à¤°": 505,
      "Ġà¤¬à¤¹": 506,
      "à¤®à¤¤": 507,
      "Ġà¤ĩà¤¨": 508,
      "Ġà¤Ĩà¤¦": 509,
      "Ġà¤īà¤¹": 510,
      "Ġà¤īà¤¨à¤ķ": 511,
      "Ġà¤¡": 512,
      "Ġà¤¸à¤¹": 513,
      "Ġà¤Ī": 514,
      "Ġà¤¸à¤¨": 515,
      "à¤§à¤¨": 516,
      "Ġà¤ķà¤²": 517,
      "Ġà¤¹à¤°": 518,
      "Ġà¤¹à¤ľ": 519,
      "à¤¤à¤²": 520,
      "à¤ĵ": 521,
      "Ġà¤Ł": 522,
      "à¤¦à¤Ľà¤¨": 523,
      "à¥ĭ,": 524,
      "à¤¦à¤¨": 525,
      "à¤²à¤¨": 526,
      "à¥¬": 527,
      "Ġà¤¸à¤Ń": 528,
      "à¤·à¤£": 529,
      "Ġà¤¯à¤¦": 530,
      "à¤Ĺà¤®": 531,
      "à¥¨": 532,
      "à¤¥à¤®": 533,
      "Â¯": 534,
      "à¥§à¥": 535,
      "Ġà¤¦à¤ķ": 536,
      "à¤ħà¤°": 537,
      "à¤¦à¤ķ": 538,
      "à¤Ńà¤ıà¤ķ": 539,
      "à¤®à¤®": 540,
      "à¤¬à¤¨": 541,
      "Ġà¤īà¤¸": 542,
      "à¤°à¤ª": 543,
      "Ġà¥¨": 544,
      "à¤¨à¤¤": 545,
      "Ġà¤ķà¤°à¤¤": 546,
      "à¤¾-": 547,
      "Ġà¤ķà¤¸": 548,
      "à¤¬à¤²": 549,
      "Ġà¤ļà¤²": 550,
      "à¤ľà¤²": 551,
      "à¤¶à¤¨": 552,
      "Ġà¤Ĺà¤¯": 553,
      "à¤§à¤°": 554,
      "Ġà¤īà¤ª": 555,
      "Ġà¤ħà¤¸": 556,
      "à¤µà¤®": 557,
      "à¤ľà¤¸": 558,
      "Ġà¤īà¤¦": 559,
      "à¥ģà¤Ĥ": 560,
      "à¥ĢÂŃ": 561,
      "à¤£à¤²": 562,
      "Ġà¤ħà¤¦": 563,
      "à¤Ĺà¤¨": 564,
      "à¤¾Â·": 565,
      "à¤Ĺà¤²": 566,
      "à¤µà¤¶": 567,
      "Ġà¤Ĺà¤¨": 568,
      "Ġà¤¯à¤ľ": 569,
      "Ġà¤·": 570,
      "à¤Łà¤ķ": 571,
      "à¤µà¤¯": 572,
      "Ġà¤¢": 573,
      "Ġà¤®à¤²": 574,
      "Ġà¤ªà¤Ľ": 575,
      "à¤°à¤¶": 576,
      "Ġà¥©": 577,
      "à¤¦à¤®": 578,
      "à¤Ĩà¤«": 579,
      "à¥ģà¤ĥ": 580,
      "à¤ªà¤²": 581,
      "Ġà¤ľà¤¸": 582,
      "à¤·à¤¤": 583,
      "Ġà¤¨à¤®": 584,
      "Ġà¤¸à¤µ": 585,
      "Ġà¤ľà¤²": 586,
      "Ġà¤Ńà¤ı": 587,
      "à¤¯à¤¹à¤°": 588,
      "à¤µà¤ľ": 589,
      "Ġà¥§": 590,
      "Ġà¤ªà¤¹": 591,
      "à¥Ī,": 592,
      "à¥Įà¤ģ": 593,
      "à¤¯à¤²": 594,
      "Ġà¤ªà¤µ": 595,
      "Ġà¤ķà¤¨": 596,
      "à¥įâĢĮÂŃ": 597,
      "à¤īà¤Ł": 598,
      "à¤¶à¤ķ": 599,
      "à¥Ĥà¤Ĥ": 600,
      "Ġà¤Ŀ": 601,
      "à¤°à¤¬": 602,
      "à¥©": 603,
      "à¤ķà¤Ĺ": 604,
      "à¥ĭ.": 605,
      "à¤²à¤²": 606,
      "Ġà¤ªà¤¶": 607,
      "à¤Ńà¤µ": 608,
      "Ġà¤Ńà¤ıà¤°": 609,
      "à¤£à¤Ń": 610,
      "Ġà¤īà¤¸à¤ķ": 611,
      "à¥ª": 612,
      "à¤¹à¤ķ": 613,
      "Ġà¤ħà¤¹": 614,
      "Ġà¤¬à¤¢": 615,
      "Ġà¤ıà¤īà¤Ł": 616,
      "à¥§": 617,
      "à¤®à¤°": 618,
      "à¤¬à¤¤": 619,
      "Ġà¤¶à¤ķ": 620,
      "à¤¸à¤µ": 621,
      "à¤¶à¤®": 622,
      "à¤°à¤¸à¤¨": 623,
      "à¤¨à¤¸": 624,
      "à¤¯à¤µ": 625,
      "à¤£à¤¨": 626,
      "Ġà¤Ĩà¤¶": 627,
      "Ġà¤ķà¤¥": 628,
      "à¤ļà¤²": 629,
      "Ġà¤Ĩà¤ª": 630,
      "à¤īà¤¦": 631,
      "à¤¿à¤ģ": 632,
      "à¤ľà¤®": 633,
      "Ġà¤Ĳ": 634,
      "Ġà¤¸à¤¦": 635,
      "Ġà¤ĺà¤°": 636,
      "à¤¨à¤Ńà¤¨": 637,
      "Ġà¤Ĺà¤ı": 638,
      "à¥«": 639,
      "à¤¼à¤¾": 640,
      "à¤¯à¤£": 641,
      "Ġà¤¬à¤¤": 642,
      "Ġà¤¦à¤°": 643,
      "Ġà¤Ĩà¤¯": 644,
      "à¤¯à¤¦": 645,
      "à¥ĢÂ·": 646,
      "à¥Ń": 647,
      "à¤µà¤ª": 648,
      "Ġà¤«à¤²": 649,
      "à¤¸à¤¤": 650,
      "à¤ķà¤ª": 651,
      "Ġà¤ªà¤ł": 652,
      "Ġà¤¹à¤¨": 653,
      "Ġà¤ħà¤Ĺ": 654,
      "à¤ļà¤°": 655,
      "à¤¾ÂŃâĢ¢": 656,
      "à¤¤à¤ª": 657,
      "à¤¹à¤²": 658,
      "Ġà¤ĭ": 659,
      "à¤¹à¤¸": 660,
      "Ġà¤®à¤§": 661,
      "à¤·à¤¯": 662,
      "à¤¨à¤µ": 663,
      "à¤¶à¤°": 664,
      "Ġà¤ħà¤ª": 665,
      "Ġà¤ĩà¤ļ": 666,
      "Ġà¤Ĩà¤ľ": 667,
      "Ġà¤īà¤¸à¤²": 668,
      "Ġà¤ļà¤°": 669,
      "à¤Ĺà¤µà¤¤": 670,
      "Ġà¤ªà¤¦": 671,
      "Ġà¤¤à¤¬": 672,
      "Ġà¤ľà¤¬": 673,
      "Ġà¤®à¤¤": 674,
      "à¤¨à¤¹": 675,
      "Ġà¤¤à¤ª": 676,
      "à¤Ĺà¤ķ": 677,
      "à¤®à¤¯": 678,
      "à¤ļà¤ķ": 679,
      "Ġà¤ªà¤¢": 680,
      "à¤²à¤¤": 681,
      "Ġà¤ħà¤Ń": 682,
      "à¤¦à¤¯": 683,
      "à¤ľà¤ķ": 684,
      "Ġà¤¬à¤²": 685,
      "à¤°à¤¹à¤¨": 686,
      "à¤·à¤ķ": 687,
      "Ġà¤Īà¤¶": 688,
      "à¤¨à¤ª": 689,
      "à¤Ĺà¤¯": 690,
      "à¤®à¤§": 691,
      "à¤°à¤ķà¤Ł": 692,
      "à¤¦à¤¶": 693,
      "à¤ªà¤¢": 694,
      "à¥®": 695,
      "à¥¯": 696,
      "Ġà¤ıà¤µ": 697,
      "à¤¾.": 698,
      "à¤°à¤·": 699,
      "à¤ķà¤°à¤£": 700,
      "à¤¯à¤ª": 701,
      "Ġà¤ħà¤µ": 702,
      "Ġà¤®à¤°": 703,
      "à¤ķà¤¸": 704,
      "à¥Īà¤ģ": 705,
      "Ġà¤¸à¤®à¤¯": 706,
      "Ġà¤ľà¤Ĺ": 707,
      "à¤¿Â·": 708,
      "à¤µà¤¦": 709,
      "à¤¸à¤¹à¤°": 710,
      "à¤°à¤¥à¤®": 711,
      "Ġà¤ħà¤®": 712,
      "à¤ªà¤¶": 713,
      "à¤°à¤°": 714,
      "à¤¥à¤ķ": 715,
      "à¤ļà¤¯": 716,
      "Ġà¤Ĩà¤§": 717,
      "Ġà¥ª": 718,
      "Ġà¤ĵ": 719,
      "à¤°à¤¹à¤°": 720,
      "à¤ĩà¤¬à¤²": 721,
      "à¥¥": 722,
      "Ġà¤ħà¤²": 723,
      "à¤ļà¤®": 724,
      "Ġà¤ľà¤Ĺà¤¤": 725,
      "Ġà¤¯à¤¤": 726,
      "à¤«à¤²": 727,
      "à¤¸à¤¹": 728,
      "Ġà¤ļà¤¢": 729,
      "à¤¤à¤¦": 730,
      "Ġà¤ķà¤®": 731,
      "à¤°à¤ļ": 732,
      "Ġà¤¤à¤¸": 733,
      "à¤¥à¤¨": 734,
      "Ġà¤Ĩà¤°": 735,
      "Ġà¤īà¤ł": 736,
      "Ġà¤²à¤ķ": 737,
      "à¤īà¤¤": 738,
      "Ġà¤°à¤¹à¤¨": 739,
      "à¤¨à¤°": 740,
      "à¤¿-": 741,
      "Ġà¤¸à¤Ļ": 742,
      "à¤Ńà¤ķ": 743,
      "à¤¯à¤¸à¤ķ": 744,
      "Ġà¤ħà¤¬": 745,
      "Ġà¤°à¤ķ": 746,
      "à¤¡à¤²": 747,
      "Ġà¤¯à¤¥": 748,
      "Ġà¤ķà¤·": 749,
      "à¥ĪÂŃ": 750,
      "à¤ĩà¤¤": 751,
      "à¤Łà¤¨": 752,
      "Ġà¤§à¤¨": 753,
      "Â¯Â¯": 754,
      "à¥Ģ,": 755,
      "à¤µà¤¹": 756,
      "Ġà¤¨à¤Ĺà¤°": 757,
      "à¤īà¤²": 758,
      "à¤¤à¤¹à¤°": 759,
      "Ġà¤¬à¤¡": 760,
      "à¤²à¤Ĺ": 761,
      "à¤§à¤¤": 762,
      "à¤§à¤ķ": 763,
      "Ġà¤¸à¤¹à¤°": 764,
      "à¤¨à¤ķà¤°": 765,
      "à¤§à¤®": 766,
      "Ġà¤ľà¤¤": 767,
      "Ġà¤ľà¤¹": 768,
      "Ġà¤¨à¤°": 769,
      "à¤ķà¤¤": 770,
      "à¤®à¤ª": 771,
      "à¥ģÂŃ": 772,
      "à¤µà¤°à¤ķ": 773,
      "Ġà¤ľà¤¸à¤²": 774,
      "à¤¬à¤°": 775,
      "à¤£à¤®": 776,
      "à¤ľà¤¯": 777,
      "Ġà¥§à¥¬": 778,
      "Ġà¤¹à¤®": 779,
      "Ġà¤¬à¤°": 780,
      "Ġà¤ħà¤ĺ": 781,
      "à¤¬à¤¹": 782,
      "à¤ªà¤¸à¤µ": 783,
      "Ġà¤ĭà¤·": 784,
      "à¤°à¤¥": 785,
      "Ġà¤®à¤¯": 786,
      "Ġà¤ħà¤µà¤¸": 787,
      "Ġà¤Ĳà¤¸": 788,
      "à¤ķà¤¹": 789,
      "à¤¸à¤¦": 790,
      "à¤·à¤®": 791,
      "à¤ĸà¤¤": 792,
      "à¤¶à¤¤": 793,
      "à¤ĩà¤¦": 794,
      "à¥įÂŃ": 795,
      "à¤¥à¤²": 796,
      "Ġà¤¤à¤ªà¤¸": 797,
      "Ġà¤¯à¤¸à¤°": 798,
      "à¤¸à¤¬": 799,
      "Ġà¤Ĩà¤ªà¤ķ": 800,
      "à¤¯à¤¶": 801,
      "à¤¯à¤°": 802,
      "Ġà¤¤à¤°": 803,
      "à¤¨à¤¦": 804,
      "à¤ķà¤ķ": 805,
      "à¤ªà¤°à¤®": 806,
      "à¤Ĺà¤£": 807,
      "Ġà¤ļà¤¨": 808,
      "à¤°à¤ĸ": 809,
      "à¤®à¤°à¤£": 810,
      "Ġà¤¦à¤¦": 811,
      "à¤§à¤ª": 812,
      "à¤¯à¤ľ": 813,
      "Ġà¤¤à¤°à¤¹": 814,
      "Ġà¤ħà¤ľ": 815,
      "Ġà¤Ńà¤µ": 816,
      "Ġà¤¸à¤ª": 817,
      "Ġà¤ħà¤ķ": 818,
      "à¤Ĭ": 819,
      "à¤®à¤µ": 820,
      "à¤²à¤¸": 821,
      "à¤ªà¤£": 822,
      "Ġà¤ªà¤ķ": 823,
      "à¤·à¤¨": 824,
      "Ġà¤¦à¤¶": 825,
      "Ġà¤ħà¤µà¤¤": 826,
      "à¤¤à¤¯": 827,
      "à¤ľà¤°": 828,
      "à¥ľ": 829,
      "à¥ĩ,": 830,
      "à¤¹à¤¤": 831,
      "à¥Īà¤ĥ": 832,
      "Ġà¤Ńà¤°": 833,
      "à¤ķà¤·": 834,
      "à¤®à¤ľ": 835,
      "à¤µà¤µ": 836,
      "à¤¯à¤¸à¤²": 837,
      "Ġ-": 838,
      "à¤¦à¤µ": 839,
      "à¤ıà¤¨": 840,
      "à¤¦à¤²": 841,
      "Ġà¤īà¤ļ": 842,
      "Ġà¤ķà¤°à¤ķ": 843,
      "à¤¶à¤²": 844,
      "Ġà¤¤à¤µ": 845,
      "Ġà¤¶à¤¬": 846,
      "à¤ļà¤°à¤£": 847,
      "à¤īà¤ª": 848,
      "à¤łà¤¤": 849,
      "à¥ĩ-": 850,
      "à¤ķà¤µ": 851,
      "Ġà¤¨à¤¦": 852,
      "à¤·à¤¦": 853,
      "Ġà¥®": 854,
      "à¤Łà¤®": 855,
      "Ġà¥¬": 856,
      "Ġà¤Ĩà¤Ĺ": 857,
      "à¤¿,": 858,
      "Ġà¤Ĺà¤Ī": 859,
      "Ġà¤¤à¤¯": 860,
      "Ġà¥Ń": 861,
      "à¤ĸà¤¨": 862,
      "à¤Ĩà¤¤": 863,
      "Ġà¤«à¤°": 864,
      "à¤ªà¤¯": 865,
      "Ġà¤µà¤ļà¤¨": 866,
      "à¤Ĩà¤ľ": 867,
      "à¥ĩÂ·": 868,
      "à¤¦à¤¸": 869,
      "Ġà¤ķà¤¸à¤°": 870,
      "Ġà¤Ĩà¤®": 871,
      "à¤¡à¤ķ": 872,
      "à¥įà¤¾": 873,
      "à¤Ńà¤°": 874,
      "à¥Īà¤Ĥ,": 875,
      "ĠÂŃ": 876,
      "à¤¥à¤µ": 877,
      "Ġà¤¶à¤¤": 878,
      "ĠÂ¯": 879,
      "Ġà¤¨à¤·": 880,
      "Ġà¤Ĩà¤ķ": 881,
      "Ġà¤Ĩà¤¨à¤¨": 882,
      "à¤¹à¤°à¤£": 883,
      "Ġà¤ľà¤¯": 884,
      "à¤°à¤§": 885,
      "à¤ĩà¤ıà¤ķ": 886,
      "Ġà¤®à¤¨à¤®": 887,
      "Ġà¤®à¤£": 888,
      "Ġà¤¤à¤²": 889,
      "à¤¡à¤®": 890,
      "à¤¡à¤¶": 891,
      "à¤Ĩà¤¯": 892,
      "à¤®à¤¹à¤°": 893,
      "à¤ªà¤ł": 894,
      "à¤¯à¤¸à¤ªà¤Ľ": 895,
      "Ġà¤Ĺà¤¤": 896,
      "à¤¡à¤µ": 897,
      "à¤§à¤µ": 898,
      "à¤ļà¤¤": 899,
      "à¤¯à¤¥": 900,
      "à¤¸à¤¸": 901,
      "à¤¹à¤®": 902,
      "à¤Ĺà¤¦": 903,
      "à¤ľà¤¤": 904,
      "Ġà¤²à¤¡": 905,
      "à¤ªà¤µ": 906,
      "à¤£à¤¸": 907,
      "à¤²à¤¯": 908,
      "à¤·à¤°": 909,
      "à¤ħà¤¤": 910,
      "à¤ĺà¤°": 911,
      "Ġà¤Ĺà¤£": 912,
      "Ġà¤Ĩà¤īà¤¨": 913,
      "à¤ħà¤§": 914,
      "Ġà¤¸à¤²": 915,
      "Ġà¤ļà¤°à¤£": 916,
      "à¤Ķà¤°": 917,
      "à¤µà¤¨à¤ķ": 918,
      "à¤¹à¤ľ": 919,
      "Ġà¤ķà¤ª": 920,
      "Ġà¤¸à¤®à¤¸": 921,
      "à¥įâĢį": 922,
      "Ġà¤¸à¤ķà¤²": 923,
      "à¥Ŀ": 924,
      "à¤¦à¤¥": 925,
      "à¤¯à¤ªà¤¦": 926,
      "à¤Ńà¤®": 927,
      "Ġà¤Ĩà¤µà¤¶": 928,
      "à¤ĩà¤¸": 929,
      "Ġà¤īà¤¨à¤²": 930,
      "à¤°à¤Ĺ": 931,
      "à¤¨à¤¯": 932,
      "à¤®à¤Ĺ": 933,
      "à¤µà¤Ń": 934,
      "à¤¶à¤¯": 935,
      "Ġà¤ľà¤®": 936,
      "Ġà¤ľà¤¸à¤°": 937,
      "à¤¦à¤¤": 938,
      "Ġà¤īà¤ªà¤¦": 939,
      "à¤¯à¤¸à¤°": 940,
      "à¤¯à¤µà¤¸": 941,
      "à¥ģ,": 942,
      "à¤µà¤§": 943,
      "à¤µà¤ļ": 944,
      "Ġà¤ķà¤¤": 945,
      "à¤·à¤²": 946,
      "à¥įâĢĮ,": 947,
      "à¤ķà¤Ł": 948,
      "à¤ħà¤¸": 949,
      "Ġà¤ĩà¤¦": 950,
      "Ġà¤ļà¤¤": 951,
      "Ġà¤Ĩà¤¨": 952,
      "âĢĮ": 953,
      "à¤¯à¤¯": 954,
      "Ġà¤µà¤¨": 955,
      "à¤īà¤®": 956,
      "à¤¤à¤¹": 957,
      "à¤łà¤®": 958,
      "Ġà¤ıà¤¸": 959,
      "à¤·à¤¸": 960,
      "Ġà¤¬à¤ļ": 961,
      "à¤¬à¤¸": 962,
      "Ġà¤īà¤®": 963,
      "à¤ĸà¤°": 964,
      "à¤īà¤¸": 965,
      "Ġà¤ĩà¤¸à¤ķ": 966,
      "âĪ": 967,
      "à¤ķà¤¹à¤°": 968,
      "Ġà¤®à¤¸": 969,
      "Ġà¤¤à¤¦": 970,
      "à¤°à¤£à¤²": 971,
      "âĪĻ": 972,
      "à¤ķà¤¦": 973,
      "Ġà¤ķà¤ł": 974,
      "à¥¤à¥¤": 975,
      "Ġà¤¸à¤ķà¤¤": 976,
      "à¤ħà¤®": 977,
      "à¤ľà¤Ĺ": 978,
      "Ġà¤Ńà¤ĩ": 979,
      "à¤ĸà¤ķ": 980,
      "Ġà¤¬à¤¦": 981,
      "à¤ħà¤¦": 982,
      "à¤¤à¤¥": 983,
      "à¥¬à¥¦": 984,
      "Ġà¥©à¥¦": 985,
      "à¤¨à¤¬": 986,
      "à¥ģ-": 987,
      "Ġà¤¤à¤¨": 988,
      "Ġà¤¤à¤ķ": 989,
      "à¤°à¤£à¤®": 990,
      "Ġà¤Ĩà¤ļ": 991,
      "à¤ĸà¤®": 992,
      "à¤°à¤¹à¤£": 993,
      "Ġà¤ķà¤¹à¤¤": 994,
      "à¥ĩà¤ĥ": 995,
      "à¥ĭà¤ĥ": 996,
      "à¤µà¤¯à¤®": 997,
      "Ġà¤¨à¤Ń": 998,
      "à¤ĩà¤¬": 999,
      "Ġà¤¸à¤®à¤¯à¤®": 1000,
      "à¥ĩà¤ģ": 1001,
      "à¤¹à¤µ": 1002,
      "Ġà¤¸à¤ľ": 1003,
      "Ġà¤¨à¤®à¤¸": 1004,
      "Ġà¤°à¤¤": 1005,
      "Ġà¥¯": 1006,
      "Ġà¥§à¥¦": 1007,
      "Ġà¤Ĩà¤¸": 1008,
      "Ġà¤Ńà¤ıà¤¨": 1009,
      "à¤µà¤Ĺ": 1010,
      "Ġà¤ħà¤ªà¤¸à¤µ": 1011,
      "à¤ĩà¤ķ": 1012,
      "à¤ªà¤¹": 1013,
      "Ġà¤Ĩà¤ıà¤ķ": 1014,
      "à¤īà¤¨à¤ķ": 1015,
      "Ġà¤Ńà¤ıà¤ªà¤Ľ": 1016,
      "à¤ļà¤¹à¤°": 1017,
      "Ġà¤¹à¤¸": 1018,
      "Ġà¤Ĺà¤ļ": 1019,
      "à¤µà¤¨à¤®": 1020,
      "à¥Ĵ": 1021,
      "à¤ķà¤¶": 1022,
      "à¤ķà¤¥": 1023,
      "à¤¸à¤ľ": 1024,
      "Ġà¤®à¤¦": 1025,
      "Ġà¤ħà¤¥à¤µ": 1026,
      "à¤Ķ": 1027,
      "à¥Ģà¤ģ": 1028,
      "Ġà¤¸à¤§": 1029,
      "à¤¥à¤°": 1030,
      "Ġà¤Ĩà¤¸à¤¨": 1031,
      "à¤ħà¤¹": 1032,
      "à¥ĭÂŃâĢ¢": 1033,
      "à¥įÂŃâĢ¢": 1034,
      "à¤£à¤µ": 1035,
      "à¤¶à¤µ": 1036,
      "Ġà¤¬à¤ķ": 1037,
      "Ġà¤Ĩà¤ĩ": 1038,
      "à¤¯à¤¨à¤¹à¤°": 1039,
      "à¤²à¤µ": 1040,
      "à¤·à¤ª": 1041,
      "Ġà¤®à¤¹à¤¤": 1042,
      "à¤¨à¤Ĺà¤°": 1043,
      "à¤¸à¤ª": 1044,
      "à¤¹à¤¬": 1045,
      "à¤ľà¤¬": 1046,
      "à¤£à¤¤": 1047,
      "Ġà¤¨à¤Ĺ": 1048,
      "Ġà¤Ĩà¤Ī": 1049,
      "à¤īà¤ķ": 1050,
      "Ġà¤¸à¤¬à¤ķ": 1051,
      "Ġà¤Ĩà¤µ": 1052,
      "Ġà¤¯à¤¸à¤ķ": 1053,
      "à¤¡à¤¨": 1054,
      "à¤ħà¤ĺ": 1055,
      "Ġà¤ĩà¤¦à¤®": 1056,
      "Ġà¤°à¤¹à¤¤": 1057,
      "à¥įà¥į": 1058,
      "à¤¯à¤¯à¤¨": 1059,
      "à¥ĪÂ·": 1060,
      "Ġà¤Ńà¤¸": 1061,
      "Ġà¤ĩà¤¸à¤²": 1062,
      "Ġà¤¥à¤°": 1063,
      "à¤°à¤µà¤£": 1064,
      "à¤ĭ": 1065,
      "à¤ķà¤¶à¤°": 1066,
      "Ġà¤¸à¤°à¤¸": 1067,
      "Ġà¤ħà¤¶": 1068,
      "Ġà¤¨à¤µ": 1069,
      "Ġà¤°à¤ļà¤¨": 1070,
      "à¤īà¤¹": 1071,
      "Ġà¤ĺà¤°à¤®": 1072,
      "à¤¿ÂŃâĢ¢": 1073,
      "à¥ĩÂŃà¥¤": 1074,
      "à¤¤à¤Ń": 1075,
      "à¤¦à¤¦": 1076,
      "Ġà¤¤à¤¹": 1077,
      "à¤Łà¤°": 1078,
      "Ġà¤īà¤²": 1079,
      "à¤¯à¤¸à¤®": 1080,
      "à¤¯à¤ķà¤¤": 1081,
      "Ġà¤ĵà¤°": 1082,
      "Ġà¤ªà¤£": 1083,
      "à¤Ĺà¤¸": 1084,
      "Ġà¤¨à¤¸à¤ķ": 1085,
      "Ġà¤²à¤²": 1086,
      "Ġà¤²à¤¸": 1087,
      "Ġà¤ļà¤ķ": 1088,
      "à¤Ĩà¤°": 1089,
      "Ġà¥§à¥¨": 1090,
      "Ġà¤Ķ": 1091,
      "à¥Ģ-": 1092,
      "Ġà¤¸à¤®à¤°": 1093,
      "à¤ķà¤°à¤¨": 1094,
      "à¥§à¥¦": 1095,
      "à¤Ĳ": 1096,
      "à¥įà¤¿": 1097,
      "à¤¤à¤¬": 1098,
      "Ġà¤µà¤¨à¤®": 1099,
      "Ġà¤¯à¤¶": 1100,
      "à¤ĸà¤²": 1101,
      "à¤¡à¤°": 1102,
      "à¤Ĩà¤¦": 1103,
      "à¤¤à¤µà¤®": 1104,
      "à¤®à¤Ń": 1105,
      "à¤µà¤£": 1106,
      "Ġà¤ľà¤Ļ": 1107,
      "Ġà¤°à¤ĺ": 1108,
      "Ġà¤ªà¤²": 1109,
      "à¤¶à¤¬": 1110,
      "Ġà¤¨à¤ľ": 1111,
      "à¤ħà¤ª": 1112,
      "Ġà¤Ńà¤Ĺà¤µà¤¦": 1113,
      "à¤ĺà¤ª": 1114,
      "Ġà¤ĸà¤¡": 1115,
      "à¤ľà¤¹": 1116,
      "à¤·à¤§": 1117,
      "à¥Ĥà¤ģ": 1118,
      "Ġà¤µà¤¡": 1119,
      "à¤Łà¤²": 1120,
      "Ġà¤Ĩà¤¸à¤ķ": 1121,
      "à¤ĩà¤²": 1122,
      "à¤łà¤¨": 1123,
      "à¤ĺà¤¨": 1124,
      "Ġà¤ıà¤¤": 1125,
      "Ġà¤¬à¤ĸà¤¤": 1126,
      "Ġà¤¦à¤¯": 1127,
      "Ġà¤Ĩà¤ī": 1128,
      "à¤µà¤°à¤²": 1129,
      "à¥¦à¥¦": 1130,
      "à¥ĭÂ·": 1131,
      "à¤µà¤¡": 1132,
      "à¤·à¤¯à¤®": 1133,
      "à¤Ńà¤µà¤¤": 1134,
      "Ġà¤®à¤¨à¤²": 1135,
      "à¤Ńà¤Ĺà¤µà¤¦": 1136,
      "à¤¯à¤Ń": 1137,
      "Ġà¤¤à¤®": 1138,
      "Ġà¤ľà¤¸à¤ķ": 1139,
      "Ġà¤Ĩà¤¦à¤°": 1140,
      "à¥§à¥®": 1141,
      "à¤¤à¤ľ": 1142,
      "à¤¸à¤Ń": 1143,
      "à¤¸à¤Ļ": 1144,
      "à¤ªà¤·": 1145,
      "Ġà¤®à¤¨à¤ķ": 1146,
      "à¤Ńà¤ı": 1147,
      "Ġà¤µà¤ķ": 1148,
      "à¤°à¤®à¤²": 1149,
      "à¤¯à¤®à¤·": 1150,
      "à¤°à¤¶à¤¸": 1151,
      "à¤¯à¤¬": 1152,
      "à¤²à¤Ń": 1153,
      "à¤Ĺà¤¬": 1154,
      "à¤£à¤¹à¤°": 1155,
      "Ġà¤¨à¤ª": 1156,
      "Ġà¤¯à¤¸à¤²": 1157,
      "à¤Ĩà¤¶": 1158,
      "Ġà¤ªà¤¹à¤²": 1159,
      "Ġà¤ľà¤Ĺà¤¦": 1160,
      "Â¯Â¯Â¯Â¯": 1161,
      "âĢĮÂŃ": 1162,
      "à¥įÂ·": 1163,
      "à¤¨à¤Ĺ": 1164,
      "à¤¨à¤Ń": 1165,
      "à¤¨à¤¹à¤°": 1166,
      "Ġà¤ªà¤¸": 1167,
      "Ġà¤¬à¤ľ": 1168,
      "Ġà¤¦à¤¸": 1169,
      "à¤ĸà¤ķà¤°": 1170,
      "à¤ħà¤Ĺ": 1171,
      "Ġà¤¸à¤¹à¤¸": 1172,
      "à¤ķà¤°à¤¤": 1173,
      "ÂŃà¥¤": 1174,
      "Ġà¤ħà¤µà¤¶": 1175,
      "Ġà¤°à¤£": 1176,
      "Ġà¤¸à¤®à¤Ŀ": 1177,
      "à¤·à¤¤à¤®": 1178,
      "à¤Ľà¤¤": 1179,
      "à¤ļà¤¹": 1180,
      "Ġà¤°à¤ľ": 1181,
      "à¤ħà¤ªà¤¨": 1182,
      "Ġà¤ĸà¤°": 1183,
      "à¤¼à¥ĩ": 1184,
      "..": 1185,
      "à¤°à¤ĺ": 1186,
      "à¤¤à¤¶": 1187,
      "Ġà¤µà¤¶": 1188,
      "Ġà¤ľà¤µ": 1189,
      "Ġà¤Ĩà¤¹": 1190,
      "Ġà¤īà¤ķ": 1191,
      "à¤ĩà¤¯": 1192,
      "à¤ĩà¤ı": 1193,
      "à¤°à¤£à¤µ": 1194,
      "à¤Ĩà¤Ĺ": 1195,
      "Ġà¤§à¤®": 1196,
      "à¤¸à¤®à¤¯": 1197,
      "Ġà¤¤à¤°à¤¹à¤²": 1198,
      "Ġ--": 1199,
      "à¤²à¤¦": 1200,
      "à¤Īà¤ķ": 1201,
      "à¤ıà¤µ": 1202,
      "à¤ĩà¤ļ": 1203,
      "Ġà¤Ĺà¤ıà¤°": 1204,
      "Ġà¤¦à¤¤": 1205,
      "Ġà¤°à¤¸": 1206,
      "à¤°à¤®à¤£": 1207,
      "à¤Ĩà¤§": 1208,
      "Ġà¤łà¤¹à¤°": 1209,
      "à¤®à¤£à¤ķ": 1210,
      "Ġà¥§à¥¬à¥¬à¥¦": 1211,
      "à¤¾à¥į": 1212,
      "à¤®à¤¶": 1213,
      "à¤¹à¤¦": 1214,
      "Ġà¤µà¤°à¤¦": 1215,
      "à¤ĩà¤°": 1216,
      "à¤«à¤°": 1217,
      "à¤¼à¤¾ÂŃ": 1218,
      "Ġà¤¡à¤°": 1219,
      "Ġà¤Ĭ": 1220,
      "à¤¨à¤ªà¤°": 1221,
      "Ġà¤ªà¤Łà¤ķ": 1222,
      "à¤£à¤ª": 1223,
      "à¤£à¤ļ": 1224,
      "à¤§à¤¸": 1225,
      "Ġà¤¨à¤¨": 1226,
      "Ġà¤īà¤ªà¤¸": 1227,
      "à¤«à¤¤": 1228,
      "à¤ħà¤Ń": 1229,
      "à¤Ĩà¤Ī": 1230,
      "Ġà¤°à¤¹à¤¸": 1231,
      "Ġà¤ĺà¤°à¤ķ": 1232,
      "à¤¤à¤°à¤®": 1233,
      "Ġà¤¸à¤ĸ": 1234,
      "Ġà¤ķà¤Ľ": 1235,
      "Ġà¤Ńà¤¤": 1236,
      "à¤¬à¤ķ": 1237,
      "Ġà¤ľà¤ª": 1238,
      "à¤¯à¤µà¤¨": 1239,
      "à¤²à¤¤à¤®": 1240,
      "à¤µà¤¹à¤°": 1241,
      "à¤µà¤°à¤£": 1242,
      "à¤ĸà¤¦": 1243,
      "Ġà¤Ńà¤Ĺà¤µà¤¤": 1244,
      "à¤ĭà¤·": 1245,
      "à¤¨à¤ľ": 1246,
      "à¥ģÂŃâĢ¢": 1247,
      "Ġà¤®à¤ķ": 1248,
      "à¤·à¤µ": 1249,
      "Ġà¤¨à¤¯": 1250,
      "à¤ıà¤¤": 1251,
      "à¤°à¤®à¤®": 1252,
      "à¤ħà¤µ": 1253,
      "à¤µà¤¤à¤®": 1254,
      "Ġà¤Ĩà¤«à¤¨": 1255,
      "Ġà¤¯à¤¸à¤ª": 1256,
      "à¤¹à¤µà¤¸": 1257,
      "Ġà¤ħà¤ļ": 1258,
      "Ġà¤¨à¤°à¤Ń": 1259,
      "Ġà¤ĺà¤Ł": 1260,
      "Ġà¤Ĩà¤ļà¤®à¤¨": 1261,
      "à¥ĭ-": 1262,
      "à¤²à¤¹": 1263,
      "à¤²à¤ľà¤²": 1264,
      "Ġà¤¦à¤®": 1265,
      "Ġà¤°à¤¥": 1266,
      "à¤Ĩà¤¨": 1267,
      "à¥įâĢĮ.": 1268,
      "à¤°à¤¸à¤®": 1269,
      "à¤ľà¤µ": 1270,
      "à¤·à¤Ń": 1271,
      "Ġà¤¬à¤Ĺ": 1272,
      "Ġà¤ħà¤¸à¤²": 1273,
      "Ġà¤¨à¤ķ": 1274,
      "Ġà¤Ĩà¤ªà¤¨": 1275,
      "à¤¾à¥¥": 1276,
      "à¤¤à¤ªà¤¸": 1277,
      "à¥ĩÂŃâĢ¢": 1278,
      "à¤¯à¤£à¤ķ": 1279,
      "à¤ªà¤Ł": 1280,
      "à¤Ĺà¤ļ": 1281,
      "à¤Ĺà¤¡": 1282,
      "à¤ľà¤¨à¤ķ": 1283,
      "Ġà¤¹à¤µ": 1284,
      "Ġà¤Ĺà¤ıà¤ķ": 1285,
      "Ġà¤¨à¤²": 1286,
      "à¤ıà¤ªà¤Ľ": 1287,
      "à¤¹à¤°à¤£à¤ķ": 1288,
      "à¤łà¤ķ": 1289,
      "à¤°à¤Ńà¤¦": 1290,
      "à¥§à¥¬": 1291,
      "Ġà¤īà¤ªà¤¯": 1292,
      "à¥ĳ": 1293,
      "Ġà¤ªà¤ŀ": 1294,
      "Ġà¤ħà¤ªà¤°": 1295,
      "Ġà¤Ľà¤°": 1296,
      "Ġà¤ħà¤¨à¤¨": 1297,
      "Ġà¤®à¤¨à¤¸": 1298,
      "Ġà¤¨à¤°à¤ªà¤¤": 1299,
      "à¤¨à¤ļ": 1300,
      "à¤¤à¤ļ": 1301,
      "à¤²à¤¬": 1302,
      "Ġà¤Ĺà¤¦": 1303,
      "à¤¡à¤ª": 1304,
      "à¤Ĩà¤ª": 1305,
      "à¤µà¤¤à¤¨": 1306,
      "Ġà¤ĺà¤¨": 1307,
      "à¤¤à¤°à¤«": 1308,
      "à¤¯à¤µà¤¹": 1309,
      "à¥įà¥ĩ": 1310,
      "à¤²à¤ª": 1311,
      "Ġà¤ķà¤µ": 1312,
      "Ġà¤®à¤¹à¤°": 1313,
      "Ġà¤°à¤ļ": 1314,
      "à¤Īà¤¶": 1315,
      "à¤īà¤°": 1316,
      "à¤¾ÂŃà¥¤": 1317,
      "Ġà¤¤à¤¸à¤¥": 1318,
      "à¥Ľ": 1319,
      "à¤¤à¤Ĺ": 1320,
      "à¤²à¤ľ": 1321,
      "à¤¹à¤¯": 1322,
      "à¤ªà¤¹à¤°": 1323,
      "Ġà¤Ńà¤²": 1324,
      "Ġà¤Ĺà¤¹": 1325,
      "Ġà¤°à¤ĸ": 1326,
      "Ġà¥§à¥¯": 1327,
      "à¥įà¥ģ": 1328,
      "à¥Ģà¤ĥ": 1329,
      "Ġà¤®à¤®": 1330,
      "à¤ľà¤Ĺà¤¤": 1331,
      "Ġà¤¹à¤Ł": 1332,
      "Ġà¤īà¤°": 1333,
      "Ġà¤īà¤µ": 1334,
      "Ġà¤īà¤ľ": 1335,
      "à¤īà¤ªà¤®": 1336,
      "à¤°à¤®à¤¸": 1337,
      "à¤°à¤¤à¤ķ": 1338,
      "Ġà¥§à¥©": 1339,
      "Ġà¤¸à¤¹à¤ľ": 1340,
      "à¥§à¥¨": 1341,
      "à¤®à¤ļ": 1342,
      "à¤µà¤Ł": 1343,
      "à¤¦à¤ª": 1344,
      "à¤ªà¤ļ": 1345,
      "Ġà¤ķà¤®à¤²": 1346,
      "Ġà¤¹à¤¤": 1347,
      "Ġà¤Ńà¤µà¤¨": 1348,
      "à¤Ľà¤°": 1349,
      "Ġà¤¦à¤°à¤µ": 1350,
      "à¤§à¤¦": 1351,
      "à¤¬à¤¢": 1352,
      "Ġà¤ľà¤²à¤®": 1353,
      "à¤Īà¤¤": 1354,
      "à¤ıà¤¸": 1355,
      "à¤ħà¤ķ": 1356,
      "à¤Ĩà¤®": 1357,
      "Ġà¤Ĳà¤¶": 1358,
      "à¥ŀ": 1359,
      "à¤¨à¤¶": 1360,
      "à¤¦à¤¯à¤®": 1361,
      "Ġà¤¸à¤«à¤²": 1362,
      "Ġà¤®à¤ľ": 1363,
      "à¤£à¤°": 1364,
      "à¤¡à¤¦": 1365,
      "à¤ħà¤²": 1366,
      "Ġà¤ĩà¤¨à¤ķ": 1367,
      "à¥ĩà¤Ĥ,": 1368,
      "à¥ĭà¤Ĥ,": 1369,
      "Ġà¤ªà¤°à¤¸": 1370,
      "à¤¸à¤®à¤¸": 1371,
      "à¤¼à¥Ģ": 1372,
      "Ġà¤ķà¤¹à¤²": 1373,
      "à¥§à¥«": 1374,
      "à¤¨à¤¥": 1375,
      "à¤®à¤Ĺà¤°": 1376,
      "à¤¯à¤Ĺ": 1377,
      "à¤Ĺà¤¹à¤°": 1378,
      "Ġà¤¹à¤µà¤¸": 1379,
      "à¤¶à¤¸": 1380,
      "Ġà¤Ĺà¤¸": 1381,
      "Ġà¤¤à¤Ł": 1382,
      "Ġà¤ħà¤ĸ": 1383,
      "à¤ļà¤¸": 1384,
      "Ġà¤¨à¤Ńà¤ıà¤ķ": 1385,
      "à¤¡à¤¸": 1386,
      "à¤ĩà¤°à¤¹": 1387,
      "à¤ħà¤¥": 1388,
      "à¤¾à¤ģÂŃ": 1389,
      "à¤°à¤¹à¤¸": 1390,
      "à¤ľà¤¨à¤®": 1391,
      "à¤®à¤£à¤²": 1392,
      "Ġà¤ķà¤¹à¤¨": 1393,
      "Ġà¤ıà¤ķà¤®": 1394,
      "à¤¨à¤¸à¤ķ": 1395,
      "à¤²à¤¹à¤°": 1396,
      "Ġà¤¸à¤«": 1397,
      "Ġà¤Ĺà¤²": 1398,
      "à¤§à¤²": 1399,
      "à¤¬à¤¦": 1400,
      "à¤¥à¤¬": 1401,
      "à¤Łà¤ª": 1402,
      "Ġà¤ĺà¤¡": 1403,
      "Ġà¥§à¥ª": 1404,
      "Ġà¤ĩà¤¸à¤¸": 1405,
      "Ġà¤ħà¤µà¤§": 1406,
      "à¤¨à¤¸à¤®": 1407,
      "à¤¤à¤°à¤ķ": 1408,
      "à¤¤à¤°à¤£": 1409,
      "à¤®à¤¬": 1410,
      "à¤²à¤°": 1411,
      "à¤µà¤°à¤®": 1412,
      "à¤ªà¤ª": 1413,
      "Ġà¤¸à¤ļ": 1414,
      "Ġà¤¸à¤°à¤ķ": 1415,
      "à¤·à¤¹à¤°": 1416,
      "Ġà¤¨à¤ļ": 1417,
      "Ġà¤°à¤ĸà¤¨": 1418,
      "à¤ıà¤Ĺ": 1419,
      "Ġà¤Ĩà¤ı": 1420,
      "Ġà¤īà¤¡": 1421,
      "à¤ĩà¤®": 1422,
      "à¤ħà¤ľ": 1423,
      "à¤ħà¤¬": 1424,
      "à¤ŀà¤¹à¤°": 1425,
      "à¤¾à¤ĤÂŃ": 1426,
      "à¤Ĩà¤īà¤¨": 1427,
      "Ġà¥§à¥®": 1428,
      "à¥§à¥ª": 1429,
      "Ġà¤Ŀà¤¨": 1430,
      "à¤®à¤ļà¤¨": 1431,
      "à¤¦à¤§": 1432,
      "à¤¦à¤¹à¤°": 1433,
      "Ġà¤¸à¤ŀ": 1434,
      "ÂŃâĪĻ": 1435,
      "Ġà¤¬à¥ľ": 1436,
      "Ġà¤ħà¤Ļ": 1437,
      "à¤Łà¤¹à¤°": 1438,
      "Ġà¤°à¤®": 1439,
      "à¤Ĩà¤ķ": 1440,
      "à¤®à¤¹à¤¨": 1441,
      "à¤Ŀà¤¨": 1442,
      "Ġ.": 1443,
      "à¤°à¤Ĩ": 1444,
      "à¤¯à¤§": 1445,
      "à¤µà¤ļà¤¨": 1446,
      "à¥Ī-": 1447,
      "à¥ĤÂŃ": 1448,
      "Ġà¤¬à¤ĸ": 1449,
      "à¤ıà¤īà¤Ł": 1450,
      "à¤īà¤ł": 1451,
      "Ġà¤ĩà¤°": 1452,
      "à¤¯à¤®à¤¹": 1453,
      "à¤®à¤¨à¤¸": 1454,
      "à¤®à¤¹à¤¸": 1455,
      "Ġà¤Īà¤¨": 1456,
      "Ġà¤¤à¤°à¤¹à¤¸": 1457,
      "à¤¡à¤µà¤¹à¤°": 1458,
      "Ġà¤¨à¤Ńà¤Ī": 1459,
      "à¥ĢÂŃâĢ¢": 1460,
      "à¤²à¤ļ": 1461,
      "à¤µà¤Ĺà¤£": 1462,
      "à¤¸à¤°à¤£": 1463,
      "à¤ªà¤ŀ": 1464,
      "Ġà¤¸à¤¸": 1465,
      "Ġà¤ķà¤¬": 1466,
      "à¤Ĺà¤ª": 1467,
      "à¤Ĺà¤²à¤®": 1468,
      "à¤ľà¤ª": 1469,
      "à¤Ńà¤¦": 1470,
      "Ġà¤¬à¤¯": 1471,
      "Ġà¤¦à¤£": 1472,
      "à¤§à¤¨à¤®": 1473,
      "à¤¬à¤ľ": 1474,
      "à¤¥à¤¸": 1475,
      "Ġà¤¶à¤°à¤£": 1476,
      "Ġà¤¶à¤°à¤£à¤®": 1477,
      "Ġà¤¨à¤°à¤ķ": 1478,
      "Ġà¤¨à¤ľà¤°": 1479,
      "à¥ĥà¥į": 1480,
      "Ġà¤īà¤ªà¤¨": 1481,
      "Ġà¤īà¤ªà¤°": 1482,
      "à¤«à¤ķ": 1483,
      "à¤Ĩà¤ļ": 1484,
      "Ġà¥§à¥«": 1485,
      "Ġà¤ħà¤µà¤¸à¤°": 1486,
      "à¤°à¤¯à¤¤": 1487,
      "à¤¨à¤Ľ": 1488,
      "à¤¨à¤Ńà¤¯": 1489,
      "à¤µà¤ķà¤°": 1490,
      "à¤¦à¤Ĺ": 1491,
      "Ġà¤ķà¤£": 1492,
      "à¥Ī.": 1493,
      "Ġà¤®à¤Ĺ": 1494,
      "à¤·à¤µà¤°": 1495,
      "à¤¶à¤¦": 1496,
      "à¤¶à¤¹à¤°": 1497,
      "Ġà¤¬à¤·à¤¤à¤®": 1498,
      "à¤¬à¤®": 1499,
      "Ġà¤¶à¤®": 1500,
      "à¤ļà¤¢": 1501,
      "à¤Īà¤¨": 1502,
      "à¤ıà¤¨à¤¨": 1503,
      "à¤ħà¤µà¤¸": 1504,
      "Ġà¤Ńà¤Ĺà¤µà¤¨": 1505,
      "à¤°à¤¤à¤®": 1506,
      "à¤Ĩà¤ĩ": 1507,
      "à¤Ĩà¤¨à¤¨": 1508,
      "à¤°à¤¦à¤¦": 1509,
      "Ġà¤łà¤²": 1510,
      "Ġà¤ħà¤¸à¤¤": 1511,
      "Ġà¥®à¥¯": 1512,
      "à¤¯à¤µà¤¤": 1513,
      "à¤Ĺà¤¬à¤¹": 1514,
      "Ġà¤¹à¤²": 1515,
      "Ġà¤¬à¤°à¤¸": 1516,
      "à¤Łà¤¸": 1517,
      "à¤Īà¤²": 1518,
      "Ġà¤Ĩà¤ķà¤°": 1519,
      "Ġà¤īà¤¸à¤®": 1520,
      "Ġà¤īà¤ªà¤®": 1521,
      "Ġà¤¯à¤®": 1522,
      "à¤ĸà¤£": 1523,
      "à¤īà¤ļ": 1524,
      "à¤ħà¤ªà¤¸à¤µ": 1525,
      "à¤¯à¤¸à¤¬": 1526,
      "Ġà¤Ľà¤²": 1527,
      "à¤ĺà¤¸": 1528,
      "Ġà¥§à¥§": 1529,
      "à¤§à¤¨à¤¬": 1530,
      "Ġà¥¨à¥ª": 1531,
      "Ġà¤ħà¤ªà¤µ": 1532,
      "à¤ĩà¤¬à¤²à¤²": 1533,
      "à¥įà¥Ģ": 1534,
      "à¤µà¤¬": 1535,
      "à¤µà¤ľà¤¨": 1536,
      "à¤ªà¤Łà¤ķ": 1537,
      "Ġà¤¸à¤Ĺ": 1538,
      "à¤ľà¤¸à¤²": 1539,
      "à¤·à¤¸à¤®": 1540,
      "à¤£à¤¬": 1541,
      "à¤¶à¤¨à¤®": 1542,
      "Ġà¤Ĺà¤µ": 1543,
      "Ġà¤¦à¤¶à¤¨": 1544,
      "à¤§à¤¨à¤ķ": 1545,
      "à¤¥à¤¹à¤°": 1546,
      "Ġà¤¨à¤¸": 1547,
      "à¤Īà¤¸": 1548,
      "Ġà¤Ĩà¤Ń": 1549,
      "à¤¡à¤µà¤²": 1550,
      "Ġà¤ļà¤²à¤¨": 1551,
      "Ġà¤ªà¤°à¤¨": 1552,
      "à¤¸à¤ķà¤²": 1553,
      "Ġà¤ĺà¤®": 1554,
      "Ġà¤īà¤¨à¤¸": 1555,
      "Ġà¤Īà¤°": 1556,
      "à¥§à¥§": 1557,
      "à¤¤à¤µà¤°": 1558,
      "à¤¯à¤ļ": 1559,
      "à¥ģ.": 1560,
      "à¤¸à¤¹à¤¸": 1561,
      "à¤ªà¤ľ": 1562,
      "Ġà¤Ńà¤ľ": 1563,
      "Ġà¤Ńà¤µà¤¤": 1564,
      "à¤£à¤¯": 1565,
      "à¤¬à¤¡": 1566,
      "Ġà¤°à¤ķà¤®": 1567,
      "à¤Īà¤®": 1568,
      "à¤īà¤¸à¤ķ": 1569,
      "Ġà¤ĩà¤®": 1570,
      "Ġà¤ĩà¤ľ": 1571,
      "à¤°à¤¤à¤°": 1572,
      "Ġà¤ªà¤°à¤¬": 1573,
      "à¤Ĩà¤µ": 1574,
      "Ġà¤ĸà¤£": 1575,
      "à¤¨à¤®à¤¸": 1576,
      "Ġà¤ķà¤¹à¤ķà¤°": 1577,
      "à¥§à¥©": 1578,
      "à¤ĩà¤¬à¤²à¤ķ": 1579,
      "Ġà¤¦à¤®à¤¯à¤¨": 1580,
      "à¥ĺ": 1581,
      "à¤¤à¤®à¤¨": 1582,
      "à¤²à¤ĸ": 1583,
      "à¤µà¤§à¤°": 1584,
      "Ġà¤ķà¤Ł": 1585,
      "Ġà¤ªà¤ļ": 1586,
      "à¤Ĺà¤¹": 1587,
      "à¤Ĺà¤ľ": 1588,
      "Ġà¤Ĺà¤ľ": 1589,
      "Ġà¤Ĺà¤Ľ": 1590,
      "Ġà¤¤à¤¸à¤°": 1591,
      "Ġà¤ħà¤£": 1592,
      "à¤ļà¤µ": 1593,
      "Ġà¤Ĩà¤ł": 1594,
      "Ġà¤¯à¤¨": 1595,
      "Ġà¤ĩà¤·": 1596,
      "à¤ŀà¤ķ": 1597,
      "à¤¸à¤®à¤¯à¤®": 1598,
      "à¤¯à¤®à¤¯": 1599,
      "Ġà¥§à¥Ń": 1600,
      "à¥¨à¥¦": 1601,
      "à¤ķà¤°à¤£à¤ķ": 1602,
      "à¥ĪÂŃà¥¤": 1603,
      "Ġà¤Ķà¤·à¤§": 1604,
      "à¤°à¤¯à¤®": 1605,
      "à¤¨à¤¹à¤¨": 1606,
      "à¥ĩ.": 1607,
      "à¤ķà¤£": 1608,
      "à¤®à¤ķà¤°": 1609,
      "à¤²à¤¡": 1610,
      "Ġà¤ªà¤¡": 1611,
      "Ġà¤Ńà¤Ī": 1612,
      "Ġà¤Ńà¤ľà¤¨": 1613,
      "Ġà¤¬à¤®": 1614,
      "Ġà¤¬à¤ļà¤¨": 1615,
      "Ġà¤¦à¤°à¤¬": 1616,
      "Ġà¤¶à¤¨": 1617,
      "Ġà¤Ĩà¤ıà¤°": 1618,
      "Ġà¤īà¤Ĺ": 1619,
      "à¤ĸà¤ª": 1620,
      "à¤ĩà¤µ": 1621,
      "à¤ĩà¤¸à¤ķ": 1622,
      "à¤¾ÂŃâĪĻ": 1623,
      "à¤ĺà¤Ł": 1624,
      "à¥įâĢĮÂŃâĢ¢": 1625,
      "Ġà¤ıà¤ķà¤¤": 1626,
      "Ġà¥§à¥§à¥": 1627,
      "à¤·à¤£à¤®": 1628,
      "Ġà¤īà¤¸à¤¸": 1629,
      "Ġà¤¹à¤¨à¤¹à¤¨": 1630,
      "Ġà¤¸à¤¹à¤°à¤®": 1631,
      "à¤Ĳà¤¸": 1632,
      "à¤¿.": 1633,
      "à¤¿à¥į": 1634,
      "à¤ķà¤°à¤ķ": 1635,
      "à¥ĭà¤ģ": 1636,
      "à¤¯à¤·": 1637,
      "à¤µà¤°à¤¤": 1638,
      "à¤¹à¤¨à¤®": 1639,
      "à¤¦à¤£": 1640,
      "à¤¦à¤Ń": 1641,
      "à¤ĤÂŃ": 1642,
      "Ġà¤Ńà¤ĩà¤¨": 1643,
      "Ġà¤µà¤¤": 1644,
      "Ġà¤ľà¤¨à¤ķ": 1645,
      "à¤Īà¤°": 1646,
      "Ġà¤¯à¤°": 1647,
      "Ġà¤²à¤ľ": 1648,
      "à¤ĥÂŃ": 1649,
      "à¤ħà¤¶": 1650,
      "à¤ħà¤ļ": 1651,
      "à¤ħà¤ªà¤°": 1652,
      "à¤°à¤¹à¤²": 1653,
      "Ġà¤Ľà¤¦": 1654,
      "à¤¿à¤ĤÂŃ": 1655,
      "Ġà¤¸à¤¹à¤¯": 1656,
      "à¤ķà¤°à¤£à¤¨": 1657,
      "à¤¯à¤ķà¤°": 1658,
      "à¤¯à¤£à¤²": 1659,
      "à¤¦à¤ļ": 1660,
      "à¤ľà¤§": 1661,
      "à¤·à¤¬": 1662,
      "à¤·à¤¯à¤¹à¤°": 1663,
      "Ġà¤Ńà¤Ł": 1664,
      "Ġà¤Ńà¤°à¤¤": 1665,
      "Ġà¤Ĺà¤®": 1666,
      "à¤Ńà¤ľà¤¨": 1667,
      "à¤Ńà¤ıà¤¨": 1668,
      "Ġà¤µà¤¶à¤®": 1669,
      "Ġà¤ħà¤µà¤¨": 1670,
      "Ġà¤ħà¤ªà¤®": 1671,
      "Ġà¤¨à¤¬": 1672,
      "à¤Łà¤¬": 1673,
      "à¤ıà¤¥": 1674,
      "Ġà¤Ĩà¤²": 1675,
      "Ġà¤¯à¤¸à¤®": 1676,
      "à¤ĸà¤¹à¤°": 1677,
      "Ġà¤²à¤®à¤ľ": 1678,
      "Ġà¤¸à¤®à¤¯à¤ķ": 1679,
      "à¤°à¤¹à¤®": 1680,
      "à¤°à¤¹à¤¦": 1681,
      "à¤ŀà¤ª": 1682,
      "à¤ĺà¤ķ": 1683,
      "à¥įâĢĮâĢĮÂŃ": 1684,
      "à¤Ļà¤ķ": 1685,
      "à¤®à¤¨à¤®": 1686,
      "à¤¼ÂŃ": 1687,
      "Ġà¤Ĭà¤ªà¤°": 1688,
      "à¤°à¤Ĺà¤°": 1689,
      "à¤¤à¤°à¤¸": 1690,
      "à¤¯à¤¨à¤ķ": 1691,
      "à¥ģà¥į": 1692,
      "à¤ªà¤Ń": 1693,
      "Ġà¤ķà¤Ń": 1694,
      "Ġà¤ªà¤§": 1695,
      "Ġà¤®à¤ķà¤µ": 1696,
      "à¤·à¤¯à¤ķ": 1697,
      "à¤¶à¤¨à¤ķ": 1698,
      "Ġà¤Ĺà¤Ļ": 1699,
      "Ġà¤¤à¤¨à¤¹": 1700,
      "Ġà¤¶à¤Ļ": 1701,
      "Ġà¤ľà¤°": 1702,
      "à¤Łà¤µ": 1703,
      "à¤Īà¤¹à¤°": 1704,
      "à¤ħà¤µà¤¤": 1705,
      "à¤Ĩà¤²": 1706,
      "à¤¸à¤®à¤°": 1707,
      "à¤ľà¤¨à¤¸": 1708,
      "à¤°à¤¸à¤°": 1709,
      "à¤Ńà¤Ĺà¤µà¤¤": 1710,
      "à¤ĵà¤¸": 1711,
      "Ġà¥¨à¥¦": 1712,
      "Ġà¤·à¤²": 1713,
      "à¥įà¥ĥ": 1714,
      "à¤°à¤ŀ": 1715,
      "à¤¨à¤·": 1716,
      "à¤¿à¤¿": 1717,
      "à¤ķà¤¬": 1718,
      "à¤ªà¤¬": 1719,
      "à¤ªà¤°à¤ķ": 1720,
      "à¤£à¤ľ": 1721,
      "à¤£à¤¤à¤¯": 1722,
      "à¤Ńà¤¸": 1723,
      "à¤Ľà¤¸": 1724,
      "à¤§à¤Ń": 1725,
      "à¤Łà¤¦": 1726,
      "à¤Īà¤¦": 1727,
      "Ġà¤īà¤¸à¤¨": 1728,
      "à¤ĸà¤¬": 1729,
      "à¤ĩà¤¨à¤¨": 1730,
      "à¤°à¤®à¤°": 1731,
      "à¤°à¤¹à¤ķ": 1732,
      "Ġà¤ªà¤°à¤²": 1733,
      "Ġà¤§à¤ª": 1734,
      "à¤ĺà¤®": 1735,
      "Ġà¤ıà¤¹": 1736,
      "à¤īà¤¨à¤²": 1737,
      "Ġà¤«à¤°à¤ķ": 1738,
      "Ġà¤«à¤²à¤ķ": 1739,
      "Ġà¤ĺà¤£": 1740,
      "à¤¤à¤®à¤§": 1741,
      "à¤®à¤¹à¤¤": 1742,
      "à¥¨à¥«": 1743,
      "à¥§à¥¯": 1744,
      "Ġà¤īà¤ªà¤ļ": 1745,
      "Ġà¤·à¤¡": 1746,
      "Ġà¤ĭà¤ļ": 1747,
      "à¤ĩà¤¬à¤²à¤®": 1748,
      "Ġà¤Ĩà¤ĩà¤ª": 1749,
      "à¥§à¥®à¥¯": 1750,
      "Ġ---": 1751,
      "à¤°à¤ªà¤¦": 1752,
      "à¤µà¤ªà¤°": 1753,
      "à¤µà¤Ńà¤ķ": 1754,
      "à¤¸à¤¨à¤®": 1755,
      "Ġà¤ķà¤¦": 1756,
      "Ġà¤ķà¤¶": 1757,
      "Ġà¤ªà¤Ł": 1758,
      "Ġà¤ªà¤ĸ": 1759,
      "à¤Ĺà¤¶": 1760,
      "à¤ľà¤¸à¤°": 1761,
      "à¤Ńà¤¤": 1762,
      "à¤Ńà¤²": 1763,
      "Ġà¤¬à¤²à¤²": 1764,
      "Ġà¤¬à¥Ŀ": 1765,
      "Ġà¤¦à¤²": 1766,
      "Ġà¤¦à¤§": 1767,
      "à¤§à¤¯": 1768,
      "Ġà¤¨à¤¶": 1769,
      "à¤Łà¤¯": 1770,
      "Ġà¤ļà¤®": 1771,
      "à¤°à¤ķà¤°": 1772,
      "à¤łà¤²": 1773,
      "à¤¯à¤¸à¤¸à¤®à¤¯": 1774,
      "Ġà¤Ľà¤¥": 1775,
      "Ġà¤ĸà¤¤à¤°": 1776,
      "à¤¯à¤®à¤ķ": 1777,
      "à¤¯à¤®à¤¸": 1778,
      "à¤¤à¤ķà¤¶": 1779,
      "Ġà¤ªà¤°à¤®à¤¹": 1780,
      "Ġà¤¯à¤¸à¤¬": 1781,
      "Ġà¤ħà¤ªà¤¹à¤¤": 1782,
      "à¤ķà¤°à¤£à¤®": 1783,
      "Ġà¤¸à¤¹à¤°à¤ķ": 1784,
      "Ġà¤Ńà¤ĩà¤°à¤¹": 1785,
      "Ġà¤Ńà¤ĩà¤¸à¤ķ": 1786,
      "Ġà¤Ńà¤ĩà¤°à¤¹à¤¨": 1787,
      "Ġà¤¨à¤Ńà¤ıà¤°": 1788,
      "Ġà¤°à¤£à¤¦": 1789,
      "à¤°à¤ªà¤¤": 1790,
      "à¤°à¤Ĺà¤¤": 1791,
      "à¤¨à¤°à¤¨": 1792,
      "à¤®à¤¥": 1793,
      "à¤¯à¤¨à¤®": 1794,
      "à¤µà¤¢": 1795,
      "à¤¹à¤ª": 1796,
      "Ġà¤¸à¤ªà¤¨": 1797,
      "Ġà¤ķà¤ļà¤¹à¤°": 1798,
      "Ġà¤ªà¤¤à¤¨": 1799,
      "Ġà¤®à¤ı": 1800,
      "Ġà¤®à¤Ļ": 1801,
      "Ġà¤Ńà¤¦": 1802,
      "Ġà¤Ńà¤Ĺ": 1803,
      "Ġà¤Ńà¤£": 1804,
      "à¤£à¤¦": 1805,
      "Ġà¤µà¤²": 1806,
      "Ġà¤ħà¤ľà¤¨": 1807,
      "Ġà¤ľà¤Ł": 1808,
      "Ġà¤ľà¤¡": 1809,
      "Ġà¤¨à¤ªà¤¤": 1810,
      "Ġà¥Ĳ": 1811,
      "à¥ĥà¤Ĥ": 1812,
      "à¤īà¤Ľ": 1813,
      "Ġà¤ļà¤£": 1814,
      "à¤Ĺà¤µà¤¦": 1815,
      "Ġà¤Ľà¤¤": 1816,
      "Ġà¤®à¤¹à¤®": 1817,
      "à¤°à¤¦à¤ľ": 1818,
      "à¤Ŀà¤¸": 1819,
      "Ġà¤ªà¤°à¤®à¤ª": 1820,
      "Ġà¤¹à¤°à¤·": 1821,
      "à¥§à¥Ń": 1822,
      "Ġà¥¨à¥¬": 1823,
      "Ġà¤ħà¤¹à¤Ļ": 1824,
      "Ġà¤ľà¤¬à¤¸à¤®": 1825,
      "Ġà¤ĩà¤¦à¤®à¤¨": 1826,
      "Ġà¤¬à¤ĸà¤¤à¤®": 1827,
      "-à¥į": 1828,
      "à¤°à¤µà¤°": 1829,
      "à¤°à¤µà¤¨": 1830,
      "à¤¤à¤Ĺà¤°": 1831,
      "à¤µà¤Ĺà¤°": 1832,
      "à¤µà¤Ĺà¤¤": 1833,
      "à¤¦à¤¹": 1834,
      "à¤¦à¤¨à¤ķ": 1835,
      "à¤¦à¤¶à¤®": 1836,
      "à¤ªà¤ķà¤°": 1837,
      "à¤Ĺà¤Ĺ": 1838,
      "Ġà¤®à¤¦à¤¨": 1839,
      "à¤ľà¤¶": 1840,
      "Ġà¤Ĺà¤ĩà¤¨": 1841,
      "à¤Ńà¤Ĺ": 1842,
      "à¤Ńà¤ıà¤°": 1843,
      "Ġà¤µà¤¦": 1844,
      "Ġà¤µà¤¨à¤ķ": 1845,
      "Ġà¤¦à¤¹": 1846,
      "à¤¬à¤°à¤¸": 1847,
      "Ġà¤ľà¤¯à¤®": 1848,
      "Ġà¤ľà¤Ĺà¤¨": 1849,
      "à¤Łà¤¤": 1850,
      "Ġà¤¯à¤ķ": 1851,
      "Ġà¤¯à¤®à¤¦": 1852,
      "à¤ĩà¤¹": 1853,
      "à¤ĩà¤¹à¤°": 1854,
      "âĢĶ": 1855,
      "Ġà¤ĩà¤¹": 1856,
      "à¤Ĩà¤µà¤¶": 1857,
      "à¤ķà¤°à¤¸": 1858,
      "à¥Īà¤Ĥ-": 1859,
      "Ġà¤ĸà¤¸": 1860,
      "à¤ľà¤¨à¤²": 1861,
      "Ġà¤ĺà¤Łà¤¨": 1862,
      "Ġà¤¸à¤¬à¤²": 1863,
      "à¤°à¤¦à¤ķ": 1864,
      "Ġà¤ľà¤¨à¤¤": 1865,
      "à¤®à¤¦à¤¨": 1866,
      "Ġà¤ķà¤²à¤¶": 1867,
      "Ġà¥¨à¥¨": 1868,
      "Ġà¥¨à¥§": 1869,
      "Ġà¤Ńà¤ıà¤®": 1870,
      "Ġà¤Ŀà¤Ł": 1871,
      "Ġà¤ħà¤²à¤Ĺ": 1872,
      "à¤µà¤ļà¤¨à¤®": 1873,
      "Ġà¥©à¥¦à¥¨": 1874,
      "à¤°à¤Ļ": 1875,
      "à¤°à¤Ĺà¤£": 1876,
      "à¤ķà¤°à¤®": 1877,
      "à¤¸à¤ļ": 1878,
      "à¤¹à¤®à¤£": 1879,
      "Ġà¤¸à¤¹à¤¨": 1880,
      "Ġà¤ķà¤ļ": 1881,
      "Ġà¤ªà¥Ŀ": 1882,
      "à¤Ĺà¤Ī": 1883,
      "à¤Ĺà¤ı": 1884,
      "à¤Ĺà¤²à¤ķ": 1885,
      "à¤£à¤®à¤¯": 1886,
      "Ġà¤¤à¤ľ": 1887,
      "Ġà¤µà¤°à¤£": 1888,
      "Ġà¤¦à¤ļ": 1889,
      "Ġà¤¦à¤®à¤¨": 1890,
      "Ġà¤ħà¤¯": 1891,
      "Ġà¤ħà¤¥": 1892,
      "Ġà¤ħà¤«": 1893,
      "à¤ļà¤ª": 1894,
      "Ġà¤ľà¤¨à¤¨": 1895,
      "à¤Łà¤¨à¤ķ": 1896,
      "Ġà¤°à¤µ": 1897,
      "Ġà¤īà¤Ń": 1898,
      "à¤ĸà¤¸": 1899,
      "à¤«à¤¨": 1900,
      "à¤łà¤¹à¤°": 1901,
      "à¤ĺà¤°à¤®": 1902,
      "Ġà¤ıà¤ķà¤²": 1903,
      "à¤ľà¤¨à¤°à¤²": 1904,
      "à¤¯à¤¤à¤¯": 1905,
      "à¤¼à¥ĭÂŃ": 1906,
      "Ġà¤¸à¤¤à¤²": 1907,
      "à¤ķà¤®à¤²": 1908,
      "à¤°à¤ľà¤¸": 1909,
      "Ġà¤¡à¤°à¤²": 1910,
      "à¥¬à¥¬": 1911,
      "Ġà¤ľà¤²à¤§": 1912,
      "Ġà¤«à¤²à¤¸": 1913,
      "à¤ĸà¤¨à¤Ĭ": 1914,
      "Ġà¤Ľà¤¥à¤°à¤ª": 1915,
      "à¥įà¥Ĥ": 1916,
      "à¥įà¥¥": 1917,
      "à¤°à¤Ľ": 1918,
      "à¤°à¤µà¤ķ": 1919,
      "à¤¤à¤¨à¤ķ": 1920,
      "à¤¤à¤¦à¤¨": 1921,
      "à¤¯à¤Ļ": 1922,
      "à¤¸à¤¯": 1923,
      "à¤¹à¤£": 1924,
      "à¤¦à¤¨à¤®": 1925,
      "Ġà¤¸à¤¯": 1926,
      "Ġà¤ķà¤¸à¤²": 1927,
      "à¤Ĺà¤ķà¤°": 1928,
      "à¤Ĺà¤¢": 1929,
      "à¤Ĺà¤®à¤¨": 1930,
      "Ġà¤®à¤°à¤£": 1931,
      "à¤ľà¤¦": 1932,
      "Ġà¤Ĺà¤ª": 1933,
      "Ġà¤¤à¤Ń": 1934,
      "à¤ļà¤¬": 1935,
      "Ġà¤°à¤®à¤£": 1936,
      "à¤ıà¤µà¤®": 1937,
      "Ġà¤Ĩà¤ªà¤¤": 1938,
      "Ġà¤¯à¤µ": 1939,
      "Ġà¤²à¤ĸ": 1940,
      "à¤¡à¤¹à¤°": 1941,
      "à¤īà¤¸à¤²": 1942,
      "à¤īà¤ªà¤¦": 1943,
      "à¤ĩà¤ľ": 1944,
      "à¤ĩà¤Ľ": 1945,
      "à¥Į,": 1946,
      "Ġà¤ĩà¤¸à¤®": 1947,
      "Ġà¤ĩà¤¤à¤¨": 1948,
      "à¤°à¤¹à¤µ": 1949,
      "Ġà¤Ľà¤ª": 1950,
      "à¤Ĩà¤¸": 1951,
      "Ġà¤®à¤¨à¤¨": 1952,
      "à¤¤à¤®à¤®": 1953,
      "à¤¿ÂŃà¥¤": 1954,
      "à¤¤à¤ķà¤ķ": 1955,
      "à¤ķà¤²à¤¨": 1956,
      "à¤¤à¤¨à¤®à¤¨": 1957,
      "à¥Įà¤Ĥ,": 1958,
      "à¤ķà¤®à¤²à¤ķ": 1959,
      "à¥¨à¥©": 1960,
      "à¤¦à¤ķà¤ķ": 1961,
      "à¤ľà¤²à¤¯": 1962,
      "Ġà¤īà¤ªà¤Ń": 1963,
      "Ġà¥©à¥®": 1964,
      "Ġà¤ľà¤²à¤²": 1965,
      "Ġà¤Ĳà¤²": 1966,
      "Ġà¥¬à¥¦": 1967,
      "Ġà¤¥à¤°à¤ĺà¤°": 1968,
      "Ġ?": 1969,
      "à¥įà¥ĭ": 1970,
      "à¤°à¤ļà¤²": 1971,
      "à¤¨à¤Ńà¤ıà¤ķ": 1972,
      "à¤ķà¤¯": 1973,
      "à¤®à¤¨à¤ķ": 1974,
      "à¤²à¤Ľ": 1975,
      "à¤²à¤ĺ": 1976,
      "à¤²à¤Ļ": 1977,
      "à¤²à¤ĸà¤¨à¤Ĭ": 1978,
      "à¤¸à¤Ĺ": 1979,
      "à¤¦à¤¬": 1980,
      "à¤Ĺà¤°à¤®": 1981,
      "Ġà¤®à¤ļ": 1982,
      "Ġà¤®à¤ıà¤ķ": 1983,
      "à¤ľà¤ļà¤ķ": 1984,
      "à¤¶à¤¶": 1985,
      "à¤§à¤¬": 1986,
      "Ġà¤ħà¤Ľ": 1987,
      "Ġà¤ħà¤¸à¤¨": 1988,
      "à¤¥à¤ľ": 1989,
      "à¤ļà¤¯à¤¨": 1990,
      "Ġà¥¦": 1991,
      "Ġà¤Ĩà¤ļà¤°à¤£": 1992,
      "Ġà¤īà¤ĸ": 1993,
      "Ġà¤īà¤¨à¤®": 1994,
      "Ġà¤²à¤·à¤¨": 1995,
      "à¤ĩà¤Ł": 1996,
      "à¤Ĩà¤ī": 1997,
      "à¤ªà¤°à¤¸": 1998,
      "Ġà¤ĸà¤¨": 1999
    },
    "merges": [
      [
        "à",
        "¤"
      ],
      [
        "à",
        "¥"
      ],
      [
        "Ġ",
        "à¤"
      ],
      [
        "à¤",
        "¾"
      ],
      [
        "à¥",
        "į"
      ],
      [
        "à¤",
        "°"
      ],
      [
        "à¤",
        "¨"
      ],
      [
        "à¤",
        "¿"
      ],
      [
        "à¤",
        "¤"
      ],
      [
        "à¥",
        "ĩ"
      ],
      [
        "à¤",
        "ķ"
      ],
      [
        "à¤",
        "®"
      ],
      [
        "à¥",
        "ĭ"
      ],
      [
        "à¤",
        "¯"
      ],
      [
        "à¥",
        "ģ"
      ],
      [
        "à¥",
        "Ģ"
      ],
      [
        "à¤",
        "²"
      ],
      [
        "à¤",
        "µ"
      ],
      [
        "à¤",
        "¸"
      ],
      [
        "à¤",
        "¹"
      ],
      [
        "à¤",
        "¦"
      ],
      [
        "à¤",
        "ª"
      ],
      [
        "Ġà¤",
        "¸"
      ],
      [
        "Ġà¤",
        "ķ"
      ],
      [
        "à¤",
        "Ĥ"
      ],
      [
        "Ġà¤",
        "ª"
      ],
      [
        "à¤",
        "Ĺ"
      ],
      [
        "à¥",
        "Ī"
      ],
      [
        "Ġà¤",
        "®"
      ],
      [
        "à¤",
        "ľ"
      ],
      [
        "à¤",
        "·"
      ],
      [
        "Ġà¤",
        "¹"
      ],
      [
        "à¥",
        "Ĥ"
      ],
      [
        "Ġà¤",
        "Ń"
      ],
      [
        "à¤",
        "£"
      ],
      [
        "à¤",
        "¶"
      ],
      [
        "Ġà¤",
        "Ĺ"
      ],
      [
        "Ġà¤",
        "¤"
      ],
      [
        "à¤",
        "Ń"
      ],
      [
        "Ġà¤",
        "µ"
      ],
      [
        "Â",
        "Ń"
      ],
      [
        "Ġà¤",
        "¬"
      ],
      [
        "à¤",
        "Ľ"
      ],
      [
        "Ġà¤",
        "¦"
      ],
      [
        "à¤",
        "§"
      ],
      [
        "Ġà¤",
        "ħ"
      ],
      [
        "à¤",
        "¬"
      ],
      [
        "à¤",
        "¥"
      ],
      [
        "Ġà¤",
        "¶"
      ],
      [
        "à¤",
        "ļ"
      ],
      [
        "Ġà¤",
        "ľ"
      ],
      [
        "Ġà¤",
        "¨"
      ],
      [
        "à¤",
        "Ł"
      ],
      [
        "Ġà¤",
        "°"
      ],
      [
        "à¤",
        "Ī"
      ],
      [
        "Ġ",
        "à¥"
      ],
      [
        "Ġà¤Ĺ",
        "à¤°"
      ],
      [
        "à¤",
        "ı"
      ],
      [
        "à¤",
        "ģ"
      ],
      [
        "à¥",
        "ĥ"
      ],
      [
        "Ġà¤",
        "Ĩ"
      ],
      [
        "Ġà¤",
        "ī"
      ],
      [
        "Ġà¤",
        "¯"
      ],
      [
        "à¤",
        "ĸ"
      ],
      [
        "Ġà¤",
        "²"
      ],
      [
        "à¤¹",
        "à¤°"
      ],
      [
        "à¤",
        "¡"
      ],
      [
        "à¤",
        "ĥ"
      ],
      [
        "à¤",
        "ī"
      ],
      [
        "Ġà¤Ń",
        "à¤¨"
      ],
      [
        "à¤",
        "ĩ"
      ],
      [
        "Ġà¤",
        "ļ"
      ],
      [
        "à¥",
        "Į"
      ],
      [
        "à¤°",
        "à¤®"
      ],
      [
        "Ġà¤ķ",
        "à¤°"
      ],
      [
        "à¤Ĺ",
        "à¤µ"
      ],
      [
        "à¤°",
        "à¤ķ"
      ],
      [
        "Ġà¥",
        "¤"
      ],
      [
        "à¤",
        "«"
      ],
      [
        "à¤",
        "ħ"
      ],
      [
        "à¤",
        "ł"
      ],
      [
        "â",
        "Ģ"
      ],
      [
        "Ġà¤¸",
        "à¤®"
      ],
      [
        "à¤ı",
        "à¤ķ"
      ],
      [
        "à¤¯",
        "à¤¸"
      ],
      [
        "à¤¾",
        "à¤ģ"
      ],
      [
        "Ġà¤",
        "ĩ"
      ],
      [
        "à¤¨",
        "à¤ķ"
      ],
      [
        "à¥ĩ",
        "à¤Ĥ"
      ],
      [
        "à¤°",
        "à¤¹"
      ],
      [
        "à¤",
        "ŀ"
      ],
      [
        "Ġà¤",
        "Ľ"
      ],
      [
        "à¥ĭ",
        "à¤Ĥ"
      ],
      [
        "Ġà¤Ń",
        "à¤Ĺà¤µ"
      ],
      [
        "à¤¾",
        "à¤Ĥ"
      ],
      [
        "à¤°",
        "à¤¤"
      ],
      [
        "à¤°",
        "à¤£"
      ],
      [
        "Ġà¤ª",
        "à¤¨"
      ],
      [
        "Ġà¤",
        "¥"
      ],
      [
        "Ġà¤ª",
        "à¤°"
      ],
      [
        "à¤¾",
        "ÂŃ"
      ],
      [
        "à¤",
        "Ĩ"
      ],
      [
        "Ġà¤",
        "§"
      ],
      [
        "à¤µ",
        "à¤°"
      ],
      [
        "à¤ª",
        "à¤¨"
      ],
      [
        "à¤¦",
        "à¤Ľ"
      ],
      [
        "à¤ķ",
        "à¤°"
      ],
      [
        "à¤µ",
        "à¤¤"
      ],
      [
        "à¥",
        "¤"
      ],
      [
        "à¤Ĺ",
        "à¤°"
      ],
      [
        "Ġà¤ħ",
        "à¤¨"
      ],
      [
        "à¥Ī",
        "à¤Ĥ"
      ],
      [
        "à¤",
        "ĺ"
      ],
      [
        "Â",
        "·"
      ],
      [
        "Ġà¤®",
        "à¤¨"
      ],
      [
        "à¤ª",
        "à¤°"
      ],
      [
        "à¤¯",
        "à¤ķ"
      ],
      [
        "à¥į",
        "âĢ"
      ],
      [
        "Ķ",
        "à¤°"
      ],
      [
        "à¤¸",
        "à¤ķ"
      ],
      [
        "à¤",
        "¢"
      ],
      [
        "Ġà¤®",
        "à¤¹"
      ],
      [
        "Ġà¤",
        "ı"
      ],
      [
        "Ġà¤",
        "ĸ"
      ],
      [
        "à¥įâĢ",
        "Į"
      ],
      [
        "Ġà¤",
        "Ķà¤°"
      ],
      [
        "à¤¸",
        "à¤®"
      ],
      [
        "Ġà¥",
        "¥"
      ],
      [
        "à¤ª",
        "à¤¤"
      ],
      [
        "à¤¿",
        "à¤Ĥ"
      ],
      [
        "à¤¯",
        "à¤®"
      ],
      [
        "à¤ī",
        "à¤¨"
      ],
      [
        "à¤ľ",
        "à¤¨"
      ],
      [
        "à¤°",
        "à¤¸"
      ],
      [
        "à¤",
        "Ļ"
      ],
      [
        "Ġà¤",
        "«"
      ],
      [
        "Ġà¥¤",
        "à¥¤"
      ],
      [
        "à¤µ",
        "à¤¨"
      ],
      [
        "Ġà¤°",
        "à¤¹"
      ],
      [
        "à¤Ń",
        "à¤¨"
      ],
      [
        "Ġà¤",
        "ĺ"
      ],
      [
        "à¤Ń",
        "à¤¯"
      ],
      [
        "à¤®",
        "à¤¨"
      ],
      [
        "Ġà¤ħ",
        "à¤°"
      ],
      [
        "Ġà¤Ĩ",
        "à¤«"
      ],
      [
        "à¤¸",
        "à¤²"
      ],
      [
        "Ġà¤¸",
        "à¤ķ"
      ],
      [
        "à¤¤",
        "à¤®"
      ],
      [
        "à¤¯",
        "à¤¤"
      ],
      [
        "Ġà¤¬",
        "à¤¨"
      ],
      [
        "à¤¸",
        "à¤°"
      ],
      [
        "âĢ",
        "¢"
      ],
      [
        "Ġà¤¸",
        "à¤¬"
      ],
      [
        "à¤¨",
        "à¤®"
      ],
      [
        "à¤°",
        "à¤¦"
      ],
      [
        "Ġà¤Ń",
        "à¤¯"
      ],
      [
        "à¤¿",
        "ÂŃ"
      ],
      [
        "à¤¨",
        "à¤¨"
      ],
      [
        "à¤µ",
        "à¤¸"
      ],
      [
        "§",
        "à¥"
      ],
      [
        "à¤¯",
        "à¤¨"
      ],
      [
        "à¥ĭ",
        "ÂŃ"
      ],
      [
        "à¤²",
        "à¤ķ"
      ],
      [
        "à¤®",
        "à¤¹"
      ],
      [
        "à¤¤",
        "à¤°"
      ],
      [
        "à¤Ľ",
        "à¤¨"
      ],
      [
        "à¤µ",
        "à¤ķ"
      ],
      [
        "à¤µ",
        "à¤²"
      ],
      [
        "à¤®",
        "à¤ķ"
      ],
      [
        "à¤ª",
        "à¤Ľ"
      ],
      [
        "Ġà¤ī",
        "à¤¨"
      ],
      [
        "Ġà¤",
        "ł"
      ],
      [
        "à¤²",
        "à¤®"
      ],
      [
        "à¥",
        "¦"
      ],
      [
        "à¤¸",
        "à¤¨"
      ],
      [
        "à¤",
        "Ŀ"
      ],
      [
        "Ġà¤¯",
        "à¤¹"
      ],
      [
        "à¥Ģ",
        "à¤Ĥ"
      ],
      [
        "à¤ı",
        "à¤°"
      ],
      [
        "à¤°",
        "à¤µ"
      ],
      [
        "à¤",
        "¼"
      ],
      [
        "à¤®",
        "à¤£"
      ],
      [
        "à¤¦",
        "à¤°"
      ],
      [
        "à¤°",
        "à¤²"
      ],
      [
        "Ġà¤ķ",
        "à¤¹"
      ],
      [
        "à¤¤",
        "à¤ķ"
      ],
      [
        "Ġà¤ī",
        "à¤¤"
      ],
      [
        "Ġà¤µ",
        "à¤°"
      ],
      [
        "à¤°",
        "à¤¨"
      ],
      [
        "à¤ķ",
        "à¤²"
      ],
      [
        "à¤¤",
        "à¤¨"
      ],
      [
        "Ġà¤ķà¤°",
        "à¤¨"
      ],
      [
        "Ġà¤ľ",
        "à¤¨"
      ],
      [
        "à¤Ĺ",
        "à¤¤"
      ],
      [
        "Ġà¤Ń",
        "à¤ıà¤ķ"
      ],
      [
        "à¥Į",
        "à¤Ĥ"
      ],
      [
        "à¤°",
        "à¤Ń"
      ],
      [
        "Ġà¤ı",
        "à¤ķ"
      ],
      [
        "Ġà¤¤",
        "à¤¥"
      ],
      [
        "à¤ĩ",
        "à¤¨"
      ],
      [
        "ÂŃ",
        "âĢ¢"
      ],
      [
        "Ġà¤¸",
        "à¤¤"
      ],
      [
        "à¤ħ",
        "à¤¨"
      ],
      [
        "à¤£",
        "à¤ķ"
      ],
      [
        "à¤ª",
        "à¤®"
      ],
      [
        "Ġà¤ª",
        "à¤°à¤®"
      ],
      [
        "Ġà¤Ń",
        "à¤ķ"
      ],
      [
        "Ġà¤¯",
        "à¤¸"
      ],
      [
        "à¤ļ",
        "à¤¨"
      ],
      [
        "à¥ģ",
        "à¤ģ"
      ],
      [
        "à¤ª",
        "à¤¦"
      ],
      [
        "Ġà¤¤",
        "à¤¤"
      ],
      [
        "Ġà¤¸",
        "à¤°"
      ],
      [
        "à¤ķ",
        "à¤®"
      ],
      [
        "Ġà¥",
        "§à¥"
      ],
      [
        "à¤®",
        "à¤¸"
      ],
      [
        "à¤ª",
        "à¤¸"
      ],
      [
        "à¤¨",
        "à¤²"
      ],
      [
        "à¤¯",
        "à¤¹"
      ],
      [
        "Ġà¤ħ",
        "à¤§"
      ],
      [
        "à¤ķ",
        "à¤¨"
      ],
      [
        "à¤®",
        "à¤¦"
      ],
      [
        "Ġà¤µ",
        "à¤¹"
      ],
      [
        "à¤¾",
        ","
      ],
      [
        "Ġà¤ĩ",
        "à¤¸"
      ],
      [
        "à¤¹",
        "à¤¨"
      ],
      [
        "à¤ª",
        "à¤ķ"
      ],
      [
        "Ġà¤ħ",
        "à¤¤"
      ],
      [
        "Ġà¤²",
        "à¤Ĺ"
      ],
      [
        "à¥ĩ",
        "ÂŃ"
      ],
      [
        "Ġà¤§",
        "à¤°"
      ],
      [
        "à¤¤",
        "à¤¸"
      ],
      [
        "à¤¿",
        "à¤ĥ"
      ],
      [
        "Ġà¤¨",
        "à¤¹"
      ],
      [
        "Ġà¤µ",
        "à¤¸"
      ],
      [
        "Ġà¤ĩ",
        "à¤¤"
      ],
      [
        "à¤¾",
        "à¤ĥ"
      ],
      [
        "à¤¤",
        "à¤¤"
      ],
      [
        "Ġà¤ħ",
        "à¤ªà¤¨"
      ],
      [
        "à¤®",
        "à¤²"
      ],
      [
        "Ġà¤ª",
        "à¤¤"
      ],
      [
        "Ġà¤Ľ",
        "à¤¨"
      ],
      [
        "Ġà¤Ĩ",
        "à¤¤"
      ],
      [
        "à¤¤",
        "à¤µ"
      ],
      [
        "Ġà¥",
        "«"
      ],
      [
        "à¤°",
        "à¤ľ"
      ],
      [
        "à¤Ń",
        "à¤Ĺà¤µ"
      ],
      [
        "Ġà¤¬",
        "à¤¸"
      ],
      [
        "à¤°",
        "à¤¯"
      ],
      [
        "Ġà¤¶",
        "à¤°"
      ],
      [
        "Ġà¤¬",
        "à¤¹"
      ],
      [
        "à¤®",
        "à¤¤"
      ],
      [
        "Ġà¤ĩ",
        "à¤¨"
      ],
      [
        "Ġà¤Ĩ",
        "à¤¦"
      ],
      [
        "Ġà¤ī",
        "à¤¹"
      ],
      [
        "Ġà¤ī",
        "à¤¨à¤ķ"
      ],
      [
        "Ġà¤",
        "¡"
      ],
      [
        "Ġà¤¸",
        "à¤¹"
      ],
      [
        "Ġà¤",
        "Ī"
      ],
      [
        "Ġà¤¸",
        "à¤¨"
      ],
      [
        "à¤§",
        "à¤¨"
      ],
      [
        "Ġà¤ķ",
        "à¤²"
      ],
      [
        "Ġà¤¹",
        "à¤°"
      ],
      [
        "Ġà¤¹",
        "à¤ľ"
      ],
      [
        "à¤¤",
        "à¤²"
      ],
      [
        "à¤",
        "ĵ"
      ],
      [
        "Ġà¤",
        "Ł"
      ],
      [
        "à¤¦à¤Ľ",
        "à¤¨"
      ],
      [
        "à¥ĭ",
        ","
      ],
      [
        "à¤¦",
        "à¤¨"
      ],
      [
        "à¤²",
        "à¤¨"
      ],
      [
        "à¥",
        "¬"
      ],
      [
        "Ġà¤¸",
        "à¤Ń"
      ],
      [
        "à¤·",
        "à¤£"
      ],
      [
        "Ġà¤¯",
        "à¤¦"
      ],
      [
        "à¤Ĺ",
        "à¤®"
      ],
      [
        "à¥",
        "¨"
      ],
      [
        "à¤¥",
        "à¤®"
      ],
      [
        "Â",
        "¯"
      ],
      [
        "à¥",
        "§à¥"
      ],
      [
        "Ġà¤¦",
        "à¤ķ"
      ],
      [
        "à¤ħ",
        "à¤°"
      ],
      [
        "à¤¦",
        "à¤ķ"
      ],
      [
        "à¤Ń",
        "à¤ıà¤ķ"
      ],
      [
        "à¤®",
        "à¤®"
      ],
      [
        "à¤¬",
        "à¤¨"
      ],
      [
        "Ġà¤ī",
        "à¤¸"
      ],
      [
        "à¤°",
        "à¤ª"
      ],
      [
        "Ġà¥",
        "¨"
      ],
      [
        "à¤¨",
        "à¤¤"
      ],
      [
        "Ġà¤ķà¤°",
        "à¤¤"
      ],
      [
        "à¤¾",
        "-"
      ],
      [
        "Ġà¤ķ",
        "à¤¸"
      ],
      [
        "à¤¬",
        "à¤²"
      ],
      [
        "Ġà¤ļ",
        "à¤²"
      ],
      [
        "à¤ľ",
        "à¤²"
      ],
      [
        "à¤¶",
        "à¤¨"
      ],
      [
        "Ġà¤Ĺ",
        "à¤¯"
      ],
      [
        "à¤§",
        "à¤°"
      ],
      [
        "Ġà¤ī",
        "à¤ª"
      ],
      [
        "Ġà¤ħ",
        "à¤¸"
      ],
      [
        "à¤µ",
        "à¤®"
      ],
      [
        "à¤ľ",
        "à¤¸"
      ],
      [
        "Ġà¤ī",
        "à¤¦"
      ],
      [
        "à¥ģ",
        "à¤Ĥ"
      ],
      [
        "à¥Ģ",
        "ÂŃ"
      ],
      [
        "à¤£",
        "à¤²"
      ],
      [
        "Ġà¤ħ",
        "à¤¦"
      ],
      [
        "à¤Ĺ",
        "à¤¨"
      ],
      [
        "à¤¾",
        "Â·"
      ],
      [
        "à¤Ĺ",
        "à¤²"
      ],
      [
        "à¤µ",
        "à¤¶"
      ],
      [
        "Ġà¤Ĺ",
        "à¤¨"
      ],
      [
        "Ġà¤¯",
        "à¤ľ"
      ],
      [
        "Ġà¤",
        "·"
      ],
      [
        "à¤Ł",
        "à¤ķ"
      ],
      [
        "à¤µ",
        "à¤¯"
      ],
      [
        "Ġà¤",
        "¢"
      ],
      [
        "Ġà¤®",
        "à¤²"
      ],
      [
        "Ġà¤ª",
        "à¤Ľ"
      ],
      [
        "à¤°",
        "à¤¶"
      ],
      [
        "Ġà¥",
        "©"
      ],
      [
        "à¤¦",
        "à¤®"
      ],
      [
        "à¤Ĩ",
        "à¤«"
      ],
      [
        "à¥ģ",
        "à¤ĥ"
      ],
      [
        "à¤ª",
        "à¤²"
      ],
      [
        "Ġà¤ľ",
        "à¤¸"
      ],
      [
        "à¤·",
        "à¤¤"
      ],
      [
        "Ġà¤¨",
        "à¤®"
      ],
      [
        "Ġà¤¸",
        "à¤µ"
      ],
      [
        "Ġà¤ľ",
        "à¤²"
      ],
      [
        "Ġà¤Ń",
        "à¤ı"
      ],
      [
        "à¤¯",
        "à¤¹à¤°"
      ],
      [
        "à¤µ",
        "à¤ľ"
      ],
      [
        "Ġà¥",
        "§"
      ],
      [
        "Ġà¤ª",
        "à¤¹"
      ],
      [
        "à¥Ī",
        ","
      ],
      [
        "à¥Į",
        "à¤ģ"
      ],
      [
        "à¤¯",
        "à¤²"
      ],
      [
        "Ġà¤ª",
        "à¤µ"
      ],
      [
        "Ġà¤ķ",
        "à¤¨"
      ],
      [
        "à¥įâĢĮ",
        "ÂŃ"
      ],
      [
        "à¤ī",
        "à¤Ł"
      ],
      [
        "à¤¶",
        "à¤ķ"
      ],
      [
        "à¥Ĥ",
        "à¤Ĥ"
      ],
      [
        "Ġà¤",
        "Ŀ"
      ],
      [
        "à¤°",
        "à¤¬"
      ],
      [
        "à¥",
        "©"
      ],
      [
        "à¤ķ",
        "à¤Ĺ"
      ],
      [
        "à¥ĭ",
        "."
      ],
      [
        "à¤²",
        "à¤²"
      ],
      [
        "Ġà¤ª",
        "à¤¶"
      ],
      [
        "à¤Ń",
        "à¤µ"
      ],
      [
        "Ġà¤Ń",
        "à¤ıà¤°"
      ],
      [
        "à¤£",
        "à¤Ń"
      ],
      [
        "Ġà¤ī",
        "à¤¸à¤ķ"
      ],
      [
        "à¥",
        "ª"
      ],
      [
        "à¤¹",
        "à¤ķ"
      ],
      [
        "Ġà¤ħ",
        "à¤¹"
      ],
      [
        "Ġà¤¬",
        "à¤¢"
      ],
      [
        "Ġà¤ı",
        "à¤īà¤Ł"
      ],
      [
        "à¥",
        "§"
      ],
      [
        "à¤®",
        "à¤°"
      ],
      [
        "à¤¬",
        "à¤¤"
      ],
      [
        "Ġà¤¶",
        "à¤ķ"
      ],
      [
        "à¤¸",
        "à¤µ"
      ],
      [
        "à¤¶",
        "à¤®"
      ],
      [
        "à¤°à¤¸",
        "à¤¨"
      ],
      [
        "à¤¨",
        "à¤¸"
      ],
      [
        "à¤¯",
        "à¤µ"
      ],
      [
        "à¤£",
        "à¤¨"
      ],
      [
        "Ġà¤Ĩ",
        "à¤¶"
      ],
      [
        "Ġà¤ķ",
        "à¤¥"
      ],
      [
        "à¤ļ",
        "à¤²"
      ],
      [
        "Ġà¤Ĩ",
        "à¤ª"
      ],
      [
        "à¤ī",
        "à¤¦"
      ],
      [
        "à¤¿",
        "à¤ģ"
      ],
      [
        "à¤ľ",
        "à¤®"
      ],
      [
        "Ġà¤",
        "Ĳ"
      ],
      [
        "Ġà¤¸",
        "à¤¦"
      ],
      [
        "Ġà¤ĺ",
        "à¤°"
      ],
      [
        "à¤¨",
        "à¤Ńà¤¨"
      ],
      [
        "Ġà¤Ĺ",
        "à¤ı"
      ],
      [
        "à¥",
        "«"
      ],
      [
        "à¤¼",
        "à¤¾"
      ],
      [
        "à¤¯",
        "à¤£"
      ],
      [
        "Ġà¤¬",
        "à¤¤"
      ],
      [
        "Ġà¤¦",
        "à¤°"
      ],
      [
        "Ġà¤Ĩ",
        "à¤¯"
      ],
      [
        "à¤¯",
        "à¤¦"
      ],
      [
        "à¥Ģ",
        "Â·"
      ],
      [
        "à¥",
        "Ń"
      ],
      [
        "à¤µ",
        "à¤ª"
      ],
      [
        "Ġà¤«",
        "à¤²"
      ],
      [
        "à¤¸",
        "à¤¤"
      ],
      [
        "à¤ķ",
        "à¤ª"
      ],
      [
        "Ġà¤ª",
        "à¤ł"
      ],
      [
        "Ġà¤¹",
        "à¤¨"
      ],
      [
        "Ġà¤ħ",
        "à¤Ĺ"
      ],
      [
        "à¤ļ",
        "à¤°"
      ],
      [
        "à¤¾ÂŃ",
        "âĢ¢"
      ],
      [
        "à¤¤",
        "à¤ª"
      ],
      [
        "à¤¹",
        "à¤²"
      ],
      [
        "Ġà¤",
        "ĭ"
      ],
      [
        "à¤¹",
        "à¤¸"
      ],
      [
        "Ġà¤®",
        "à¤§"
      ],
      [
        "à¤·",
        "à¤¯"
      ],
      [
        "à¤¨",
        "à¤µ"
      ],
      [
        "à¤¶",
        "à¤°"
      ],
      [
        "Ġà¤ħ",
        "à¤ª"
      ],
      [
        "Ġà¤ĩ",
        "à¤ļ"
      ],
      [
        "Ġà¤Ĩ",
        "à¤ľ"
      ],
      [
        "Ġà¤ī",
        "à¤¸à¤²"
      ],
      [
        "Ġà¤ļ",
        "à¤°"
      ],
      [
        "à¤Ĺà¤µ",
        "à¤¤"
      ],
      [
        "Ġà¤ª",
        "à¤¦"
      ],
      [
        "Ġà¤¤",
        "à¤¬"
      ],
      [
        "Ġà¤ľ",
        "à¤¬"
      ],
      [
        "Ġà¤®",
        "à¤¤"
      ],
      [
        "à¤¨",
        "à¤¹"
      ],
      [
        "Ġà¤¤",
        "à¤ª"
      ],
      [
        "à¤Ĺ",
        "à¤ķ"
      ],
      [
        "à¤®",
        "à¤¯"
      ],
      [
        "à¤ļ",
        "à¤ķ"
      ],
      [
        "Ġà¤ª",
        "à¤¢"
      ],
      [
        "à¤²",
        "à¤¤"
      ],
      [
        "Ġà¤ħ",
        "à¤Ń"
      ],
      [
        "à¤¦",
        "à¤¯"
      ],
      [
        "à¤ľ",
        "à¤ķ"
      ],
      [
        "Ġà¤¬",
        "à¤²"
      ],
      [
        "à¤°à¤¹",
        "à¤¨"
      ],
      [
        "à¤·",
        "à¤ķ"
      ],
      [
        "Ġà¤Ī",
        "à¤¶"
      ],
      [
        "à¤¨",
        "à¤ª"
      ],
      [
        "à¤Ĺ",
        "à¤¯"
      ],
      [
        "à¤®",
        "à¤§"
      ],
      [
        "à¤°à¤ķ",
        "à¤Ł"
      ],
      [
        "à¤¦",
        "à¤¶"
      ],
      [
        "à¤ª",
        "à¤¢"
      ],
      [
        "à¥",
        "®"
      ],
      [
        "à¥",
        "¯"
      ],
      [
        "Ġà¤ı",
        "à¤µ"
      ],
      [
        "à¤¾",
        "."
      ],
      [
        "à¤°",
        "à¤·"
      ],
      [
        "à¤ķ",
        "à¤°à¤£"
      ],
      [
        "à¤¯",
        "à¤ª"
      ],
      [
        "Ġà¤ħ",
        "à¤µ"
      ],
      [
        "Ġà¤®",
        "à¤°"
      ],
      [
        "à¤ķ",
        "à¤¸"
      ],
      [
        "à¥Ī",
        "à¤ģ"
      ],
      [
        "Ġà¤¸à¤®",
        "à¤¯"
      ],
      [
        "Ġà¤ľ",
        "à¤Ĺ"
      ],
      [
        "à¤¿",
        "Â·"
      ],
      [
        "à¤µ",
        "à¤¦"
      ],
      [
        "à¤¸",
        "à¤¹à¤°"
      ],
      [
        "à¤°",
        "à¤¥à¤®"
      ],
      [
        "Ġà¤ħ",
        "à¤®"
      ],
      [
        "à¤ª",
        "à¤¶"
      ],
      [
        "à¤°",
        "à¤°"
      ],
      [
        "à¤¥",
        "à¤ķ"
      ],
      [
        "à¤ļ",
        "à¤¯"
      ],
      [
        "Ġà¤Ĩ",
        "à¤§"
      ],
      [
        "Ġà¥",
        "ª"
      ],
      [
        "Ġà¤",
        "ĵ"
      ],
      [
        "à¤°",
        "à¤¹à¤°"
      ],
      [
        "à¤ĩ",
        "à¤¬à¤²"
      ],
      [
        "à¥",
        "¥"
      ],
      [
        "Ġà¤ħ",
        "à¤²"
      ],
      [
        "à¤ļ",
        "à¤®"
      ],
      [
        "Ġà¤ľ",
        "à¤Ĺà¤¤"
      ],
      [
        "Ġà¤¯",
        "à¤¤"
      ],
      [
        "à¤«",
        "à¤²"
      ],
      [
        "à¤¸",
        "à¤¹"
      ],
      [
        "Ġà¤ļ",
        "à¤¢"
      ],
      [
        "à¤¤",
        "à¤¦"
      ],
      [
        "Ġà¤ķ",
        "à¤®"
      ],
      [
        "à¤°",
        "à¤ļ"
      ],
      [
        "Ġà¤¤",
        "à¤¸"
      ],
      [
        "à¤¥",
        "à¤¨"
      ],
      [
        "Ġà¤Ĩ",
        "à¤°"
      ],
      [
        "Ġà¤ī",
        "à¤ł"
      ],
      [
        "Ġà¤²",
        "à¤ķ"
      ],
      [
        "à¤ī",
        "à¤¤"
      ],
      [
        "Ġà¤°à¤¹",
        "à¤¨"
      ],
      [
        "à¤¨",
        "à¤°"
      ],
      [
        "à¤¿",
        "-"
      ],
      [
        "Ġà¤¸",
        "à¤Ļ"
      ],
      [
        "à¤Ń",
        "à¤ķ"
      ],
      [
        "à¤¯à¤¸",
        "à¤ķ"
      ],
      [
        "Ġà¤ħ",
        "à¤¬"
      ],
      [
        "Ġà¤°",
        "à¤ķ"
      ],
      [
        "à¤¡",
        "à¤²"
      ],
      [
        "Ġà¤¯",
        "à¤¥"
      ],
      [
        "Ġà¤ķ",
        "à¤·"
      ],
      [
        "à¥Ī",
        "ÂŃ"
      ],
      [
        "à¤ĩ",
        "à¤¤"
      ],
      [
        "à¤Ł",
        "à¤¨"
      ],
      [
        "Ġà¤§",
        "à¤¨"
      ],
      [
        "Â¯",
        "Â¯"
      ],
      [
        "à¥Ģ",
        ","
      ],
      [
        "à¤µ",
        "à¤¹"
      ],
      [
        "Ġà¤¨",
        "à¤Ĺà¤°"
      ],
      [
        "à¤ī",
        "à¤²"
      ],
      [
        "à¤¤",
        "à¤¹à¤°"
      ],
      [
        "Ġà¤¬",
        "à¤¡"
      ],
      [
        "à¤²",
        "à¤Ĺ"
      ],
      [
        "à¤§",
        "à¤¤"
      ],
      [
        "à¤§",
        "à¤ķ"
      ],
      [
        "Ġà¤¸",
        "à¤¹à¤°"
      ],
      [
        "à¤¨à¤ķ",
        "à¤°"
      ],
      [
        "à¤§",
        "à¤®"
      ],
      [
        "Ġà¤ľ",
        "à¤¤"
      ],
      [
        "Ġà¤ľ",
        "à¤¹"
      ],
      [
        "Ġà¤¨",
        "à¤°"
      ],
      [
        "à¤ķ",
        "à¤¤"
      ],
      [
        "à¤®",
        "à¤ª"
      ],
      [
        "à¥ģ",
        "ÂŃ"
      ],
      [
        "à¤µ",
        "à¤°à¤ķ"
      ],
      [
        "Ġà¤ľ",
        "à¤¸à¤²"
      ],
      [
        "à¤¬",
        "à¤°"
      ],
      [
        "à¤£",
        "à¤®"
      ],
      [
        "à¤ľ",
        "à¤¯"
      ],
      [
        "Ġà¥§à¥",
        "¬"
      ],
      [
        "Ġà¤¹",
        "à¤®"
      ],
      [
        "Ġà¤¬",
        "à¤°"
      ],
      [
        "Ġà¤ħ",
        "à¤ĺ"
      ],
      [
        "à¤¬",
        "à¤¹"
      ],
      [
        "à¤ªà¤¸",
        "à¤µ"
      ],
      [
        "Ġà¤ĭ",
        "à¤·"
      ],
      [
        "à¤°",
        "à¤¥"
      ],
      [
        "Ġà¤®",
        "à¤¯"
      ],
      [
        "Ġà¤ħ",
        "à¤µà¤¸"
      ],
      [
        "Ġà¤Ĳ",
        "à¤¸"
      ],
      [
        "à¤ķ",
        "à¤¹"
      ],
      [
        "à¤¸",
        "à¤¦"
      ],
      [
        "à¤·",
        "à¤®"
      ],
      [
        "à¤ĸ",
        "à¤¤"
      ],
      [
        "à¤¶",
        "à¤¤"
      ],
      [
        "à¤ĩ",
        "à¤¦"
      ],
      [
        "à¥į",
        "ÂŃ"
      ],
      [
        "à¤¥",
        "à¤²"
      ],
      [
        "Ġà¤¤",
        "à¤ªà¤¸"
      ],
      [
        "Ġà¤¯",
        "à¤¸à¤°"
      ],
      [
        "à¤¸",
        "à¤¬"
      ],
      [
        "Ġà¤Ĩ",
        "à¤ªà¤ķ"
      ],
      [
        "à¤¯",
        "à¤¶"
      ],
      [
        "à¤¯",
        "à¤°"
      ],
      [
        "Ġà¤¤",
        "à¤°"
      ],
      [
        "à¤¨",
        "à¤¦"
      ],
      [
        "à¤ķ",
        "à¤ķ"
      ],
      [
        "à¤ª",
        "à¤°à¤®"
      ],
      [
        "à¤Ĺ",
        "à¤£"
      ],
      [
        "Ġà¤ļ",
        "à¤¨"
      ],
      [
        "à¤°",
        "à¤ĸ"
      ],
      [
        "à¤®",
        "à¤°à¤£"
      ],
      [
        "Ġà¤¦",
        "à¤¦"
      ],
      [
        "à¤§",
        "à¤ª"
      ],
      [
        "à¤¯",
        "à¤ľ"
      ],
      [
        "Ġà¤¤",
        "à¤°à¤¹"
      ],
      [
        "Ġà¤ħ",
        "à¤ľ"
      ],
      [
        "Ġà¤Ń",
        "à¤µ"
      ],
      [
        "Ġà¤¸",
        "à¤ª"
      ],
      [
        "Ġà¤ħ",
        "à¤ķ"
      ],
      [
        "à¤",
        "Ĭ"
      ],
      [
        "à¤®",
        "à¤µ"
      ],
      [
        "à¤²",
        "à¤¸"
      ],
      [
        "à¤ª",
        "à¤£"
      ],
      [
        "Ġà¤ª",
        "à¤ķ"
      ],
      [
        "à¤·",
        "à¤¨"
      ],
      [
        "Ġà¤¦",
        "à¤¶"
      ],
      [
        "Ġà¤ħ",
        "à¤µà¤¤"
      ],
      [
        "à¤¤",
        "à¤¯"
      ],
      [
        "à¤ľ",
        "à¤°"
      ],
      [
        "à¥",
        "ľ"
      ],
      [
        "à¥ĩ",
        ","
      ],
      [
        "à¤¹",
        "à¤¤"
      ],
      [
        "à¥Ī",
        "à¤ĥ"
      ],
      [
        "Ġà¤Ń",
        "à¤°"
      ],
      [
        "à¤ķ",
        "à¤·"
      ],
      [
        "à¤®",
        "à¤ľ"
      ],
      [
        "à¤µ",
        "à¤µ"
      ],
      [
        "à¤¯à¤¸",
        "à¤²"
      ],
      [
        "Ġ",
        "-"
      ],
      [
        "à¤¦",
        "à¤µ"
      ],
      [
        "à¤ı",
        "à¤¨"
      ],
      [
        "à¤¦",
        "à¤²"
      ],
      [
        "Ġà¤ī",
        "à¤ļ"
      ],
      [
        "Ġà¤ķà¤°",
        "à¤ķ"
      ],
      [
        "à¤¶",
        "à¤²"
      ],
      [
        "Ġà¤¤",
        "à¤µ"
      ],
      [
        "Ġà¤¶",
        "à¤¬"
      ],
      [
        "à¤ļ",
        "à¤°à¤£"
      ],
      [
        "à¤ī",
        "à¤ª"
      ],
      [
        "à¤ł",
        "à¤¤"
      ],
      [
        "à¥ĩ",
        "-"
      ],
      [
        "à¤ķ",
        "à¤µ"
      ],
      [
        "Ġà¤¨",
        "à¤¦"
      ],
      [
        "à¤·",
        "à¤¦"
      ],
      [
        "Ġà¥",
        "®"
      ],
      [
        "à¤Ł",
        "à¤®"
      ],
      [
        "Ġà¥",
        "¬"
      ],
      [
        "Ġà¤Ĩ",
        "à¤Ĺ"
      ],
      [
        "à¤¿",
        ","
      ],
      [
        "Ġà¤Ĺ",
        "à¤Ī"
      ],
      [
        "Ġà¤¤",
        "à¤¯"
      ],
      [
        "Ġà¥",
        "Ń"
      ],
      [
        "à¤ĸ",
        "à¤¨"
      ],
      [
        "à¤Ĩ",
        "à¤¤"
      ],
      [
        "Ġà¤«",
        "à¤°"
      ],
      [
        "à¤ª",
        "à¤¯"
      ],
      [
        "Ġà¤µ",
        "à¤ļà¤¨"
      ],
      [
        "à¤Ĩ",
        "à¤ľ"
      ],
      [
        "à¥ĩ",
        "Â·"
      ],
      [
        "à¤¦",
        "à¤¸"
      ],
      [
        "Ġà¤ķ",
        "à¤¸à¤°"
      ],
      [
        "Ġà¤Ĩ",
        "à¤®"
      ],
      [
        "à¤¡",
        "à¤ķ"
      ],
      [
        "à¥į",
        "à¤¾"
      ],
      [
        "à¤Ń",
        "à¤°"
      ],
      [
        "à¥Īà¤Ĥ",
        ","
      ],
      [
        "Ġ",
        "ÂŃ"
      ],
      [
        "à¤¥",
        "à¤µ"
      ],
      [
        "Ġà¤¶",
        "à¤¤"
      ],
      [
        "Ġ",
        "Â¯"
      ],
      [
        "Ġà¤¨",
        "à¤·"
      ],
      [
        "Ġà¤Ĩ",
        "à¤ķ"
      ],
      [
        "Ġà¤Ĩ",
        "à¤¨à¤¨"
      ],
      [
        "à¤¹à¤°",
        "à¤£"
      ],
      [
        "Ġà¤ľ",
        "à¤¯"
      ],
      [
        "à¤°",
        "à¤§"
      ],
      [
        "à¤ĩ",
        "à¤ıà¤ķ"
      ],
      [
        "Ġà¤®à¤¨",
        "à¤®"
      ],
      [
        "Ġà¤®",
        "à¤£"
      ],
      [
        "Ġà¤¤",
        "à¤²"
      ],
      [
        "à¤¡",
        "à¤®"
      ],
      [
        "à¤¡",
        "à¤¶"
      ],
      [
        "à¤Ĩ",
        "à¤¯"
      ],
      [
        "à¤®",
        "à¤¹à¤°"
      ],
      [
        "à¤ª",
        "à¤ł"
      ],
      [
        "à¤¯à¤¸",
        "à¤ªà¤Ľ"
      ],
      [
        "Ġà¤Ĺ",
        "à¤¤"
      ],
      [
        "à¤¡",
        "à¤µ"
      ],
      [
        "à¤§",
        "à¤µ"
      ],
      [
        "à¤ļ",
        "à¤¤"
      ],
      [
        "à¤¯",
        "à¤¥"
      ],
      [
        "à¤¸",
        "à¤¸"
      ],
      [
        "à¤¹",
        "à¤®"
      ],
      [
        "à¤Ĺ",
        "à¤¦"
      ],
      [
        "à¤ľ",
        "à¤¤"
      ],
      [
        "Ġà¤²",
        "à¤¡"
      ],
      [
        "à¤ª",
        "à¤µ"
      ],
      [
        "à¤£",
        "à¤¸"
      ],
      [
        "à¤²",
        "à¤¯"
      ],
      [
        "à¤·",
        "à¤°"
      ],
      [
        "à¤ħ",
        "à¤¤"
      ],
      [
        "à¤ĺ",
        "à¤°"
      ],
      [
        "Ġà¤Ĺ",
        "à¤£"
      ],
      [
        "Ġà¤Ĩ",
        "à¤īà¤¨"
      ],
      [
        "à¤ħ",
        "à¤§"
      ],
      [
        "Ġà¤¸",
        "à¤²"
      ],
      [
        "Ġà¤ļ",
        "à¤°à¤£"
      ],
      [
        "à¤",
        "Ķà¤°"
      ],
      [
        "à¤µ",
        "à¤¨à¤ķ"
      ],
      [
        "à¤¹",
        "à¤ľ"
      ],
      [
        "Ġà¤ķ",
        "à¤ª"
      ],
      [
        "Ġà¤¸à¤®",
        "à¤¸"
      ],
      [
        "à¥įâĢ",
        "į"
      ],
      [
        "Ġà¤¸à¤ķ",
        "à¤²"
      ],
      [
        "à¥",
        "Ŀ"
      ],
      [
        "à¤¦",
        "à¤¥"
      ],
      [
        "à¤¯",
        "à¤ªà¤¦"
      ],
      [
        "à¤Ń",
        "à¤®"
      ],
      [
        "Ġà¤Ĩ",
        "à¤µà¤¶"
      ],
      [
        "à¤ĩ",
        "à¤¸"
      ],
      [
        "Ġà¤īà¤¨",
        "à¤²"
      ],
      [
        "à¤°",
        "à¤Ĺ"
      ],
      [
        "à¤¨",
        "à¤¯"
      ],
      [
        "à¤®",
        "à¤Ĺ"
      ],
      [
        "à¤µ",
        "à¤Ń"
      ],
      [
        "à¤¶",
        "à¤¯"
      ],
      [
        "Ġà¤ľ",
        "à¤®"
      ],
      [
        "Ġà¤ľ",
        "à¤¸à¤°"
      ],
      [
        "à¤¦",
        "à¤¤"
      ],
      [
        "Ġà¤ī",
        "à¤ªà¤¦"
      ],
      [
        "à¤¯à¤¸",
        "à¤°"
      ],
      [
        "à¤¯",
        "à¤µà¤¸"
      ],
      [
        "à¥ģ",
        ","
      ],
      [
        "à¤µ",
        "à¤§"
      ],
      [
        "à¤µ",
        "à¤ļ"
      ],
      [
        "Ġà¤ķ",
        "à¤¤"
      ],
      [
        "à¤·",
        "à¤²"
      ],
      [
        "à¥įâĢĮ",
        ","
      ],
      [
        "à¤ķ",
        "à¤Ł"
      ],
      [
        "à¤ħ",
        "à¤¸"
      ],
      [
        "Ġà¤ĩ",
        "à¤¦"
      ],
      [
        "Ġà¤ļ",
        "à¤¤"
      ],
      [
        "Ġà¤Ĩ",
        "à¤¨"
      ],
      [
        "âĢ",
        "Į"
      ],
      [
        "à¤¯",
        "à¤¯"
      ],
      [
        "Ġà¤µ",
        "à¤¨"
      ],
      [
        "à¤ī",
        "à¤®"
      ],
      [
        "à¤¤",
        "à¤¹"
      ],
      [
        "à¤ł",
        "à¤®"
      ],
      [
        "Ġà¤ı",
        "à¤¸"
      ],
      [
        "à¤·",
        "à¤¸"
      ],
      [
        "Ġà¤¬",
        "à¤ļ"
      ],
      [
        "à¤¬",
        "à¤¸"
      ],
      [
        "Ġà¤ī",
        "à¤®"
      ],
      [
        "à¤ĸ",
        "à¤°"
      ],
      [
        "à¤ī",
        "à¤¸"
      ],
      [
        "Ġà¤ĩ",
        "à¤¸à¤ķ"
      ],
      [
        "â",
        "Ī"
      ],
      [
        "à¤ķ",
        "à¤¹à¤°"
      ],
      [
        "Ġà¤®",
        "à¤¸"
      ],
      [
        "Ġà¤¤",
        "à¤¦"
      ],
      [
        "à¤°à¤£",
        "à¤²"
      ],
      [
        "âĪ",
        "Ļ"
      ],
      [
        "à¤ķ",
        "à¤¦"
      ],
      [
        "Ġà¤ķ",
        "à¤ł"
      ],
      [
        "à¥¤",
        "à¥¤"
      ],
      [
        "Ġà¤¸à¤ķ",
        "à¤¤"
      ],
      [
        "à¤ħ",
        "à¤®"
      ],
      [
        "à¤ľ",
        "à¤Ĺ"
      ],
      [
        "Ġà¤Ń",
        "à¤ĩ"
      ],
      [
        "à¤ĸ",
        "à¤ķ"
      ],
      [
        "Ġà¤¬",
        "à¤¦"
      ],
      [
        "à¤ħ",
        "à¤¦"
      ],
      [
        "à¤¤",
        "à¤¥"
      ],
      [
        "à¥¬",
        "à¥¦"
      ],
      [
        "Ġà¥©",
        "à¥¦"
      ],
      [
        "à¤¨",
        "à¤¬"
      ],
      [
        "à¥ģ",
        "-"
      ],
      [
        "Ġà¤¤",
        "à¤¨"
      ],
      [
        "Ġà¤¤",
        "à¤ķ"
      ],
      [
        "à¤°à¤£",
        "à¤®"
      ],
      [
        "Ġà¤Ĩ",
        "à¤ļ"
      ],
      [
        "à¤ĸ",
        "à¤®"
      ],
      [
        "à¤°à¤¹",
        "à¤£"
      ],
      [
        "Ġà¤ķà¤¹",
        "à¤¤"
      ],
      [
        "à¥ĩ",
        "à¤ĥ"
      ],
      [
        "à¥ĭ",
        "à¤ĥ"
      ],
      [
        "à¤µ",
        "à¤¯à¤®"
      ],
      [
        "Ġà¤¨",
        "à¤Ń"
      ],
      [
        "à¤ĩ",
        "à¤¬"
      ],
      [
        "Ġà¤¸à¤®",
        "à¤¯à¤®"
      ],
      [
        "à¥ĩ",
        "à¤ģ"
      ],
      [
        "à¤¹",
        "à¤µ"
      ],
      [
        "Ġà¤¸",
        "à¤ľ"
      ],
      [
        "Ġà¤¨",
        "à¤®à¤¸"
      ],
      [
        "Ġà¤°",
        "à¤¤"
      ],
      [
        "Ġà¥",
        "¯"
      ],
      [
        "Ġà¥§à¥",
        "¦"
      ],
      [
        "Ġà¤Ĩ",
        "à¤¸"
      ],
      [
        "Ġà¤Ńà¤ı",
        "à¤¨"
      ],
      [
        "à¤µ",
        "à¤Ĺ"
      ],
      [
        "Ġà¤ħ",
        "à¤ªà¤¸à¤µ"
      ],
      [
        "à¤ĩ",
        "à¤ķ"
      ],
      [
        "à¤ª",
        "à¤¹"
      ],
      [
        "Ġà¤Ĩ",
        "à¤ıà¤ķ"
      ],
      [
        "à¤ī",
        "à¤¨à¤ķ"
      ],
      [
        "Ġà¤Ńà¤ı",
        "à¤ªà¤Ľ"
      ],
      [
        "à¤ļ",
        "à¤¹à¤°"
      ],
      [
        "Ġà¤¹",
        "à¤¸"
      ],
      [
        "Ġà¤Ĺ",
        "à¤ļ"
      ],
      [
        "à¤µà¤¨",
        "à¤®"
      ],
      [
        "à¥",
        "Ĵ"
      ],
      [
        "à¤ķ",
        "à¤¶"
      ],
      [
        "à¤ķ",
        "à¤¥"
      ],
      [
        "à¤¸",
        "à¤ľ"
      ],
      [
        "Ġà¤®",
        "à¤¦"
      ],
      [
        "Ġà¤ħ",
        "à¤¥à¤µ"
      ],
      [
        "à¤",
        "Ķ"
      ],
      [
        "à¥Ģ",
        "à¤ģ"
      ],
      [
        "Ġà¤¸",
        "à¤§"
      ],
      [
        "à¤¥",
        "à¤°"
      ],
      [
        "Ġà¤Ĩ",
        "à¤¸à¤¨"
      ],
      [
        "à¤ħ",
        "à¤¹"
      ],
      [
        "à¥ĭÂŃ",
        "âĢ¢"
      ],
      [
        "à¥į",
        "ÂŃâĢ¢"
      ],
      [
        "à¤£",
        "à¤µ"
      ],
      [
        "à¤¶",
        "à¤µ"
      ],
      [
        "Ġà¤¬",
        "à¤ķ"
      ],
      [
        "Ġà¤Ĩ",
        "à¤ĩ"
      ],
      [
        "à¤¯à¤¨",
        "à¤¹à¤°"
      ],
      [
        "à¤²",
        "à¤µ"
      ],
      [
        "à¤·",
        "à¤ª"
      ],
      [
        "Ġà¤®à¤¹",
        "à¤¤"
      ],
      [
        "à¤¨",
        "à¤Ĺà¤°"
      ],
      [
        "à¤¸",
        "à¤ª"
      ],
      [
        "à¤¹",
        "à¤¬"
      ],
      [
        "à¤ľ",
        "à¤¬"
      ],
      [
        "à¤£",
        "à¤¤"
      ],
      [
        "Ġà¤¨",
        "à¤Ĺ"
      ],
      [
        "Ġà¤Ĩ",
        "à¤Ī"
      ],
      [
        "à¤ī",
        "à¤ķ"
      ],
      [
        "Ġà¤¸à¤¬",
        "à¤ķ"
      ],
      [
        "Ġà¤Ĩ",
        "à¤µ"
      ],
      [
        "Ġà¤¯",
        "à¤¸à¤ķ"
      ],
      [
        "à¤¡",
        "à¤¨"
      ],
      [
        "à¤ħ",
        "à¤ĺ"
      ],
      [
        "Ġà¤ĩ",
        "à¤¦à¤®"
      ],
      [
        "Ġà¤°à¤¹",
        "à¤¤"
      ],
      [
        "à¥į",
        "à¥į"
      ],
      [
        "à¤¯",
        "à¤¯à¤¨"
      ],
      [
        "à¥Ī",
        "Â·"
      ],
      [
        "Ġà¤Ń",
        "à¤¸"
      ],
      [
        "Ġà¤ĩ",
        "à¤¸à¤²"
      ],
      [
        "Ġà¤¥",
        "à¤°"
      ],
      [
        "à¤°à¤µ",
        "à¤£"
      ],
      [
        "à¤",
        "ĭ"
      ],
      [
        "à¤ķ",
        "à¤¶à¤°"
      ],
      [
        "Ġà¤¸",
        "à¤°à¤¸"
      ],
      [
        "Ġà¤ħ",
        "à¤¶"
      ],
      [
        "Ġà¤¨",
        "à¤µ"
      ],
      [
        "Ġà¤°",
        "à¤ļà¤¨"
      ],
      [
        "à¤ī",
        "à¤¹"
      ],
      [
        "Ġà¤ĺ",
        "à¤°à¤®"
      ],
      [
        "à¤¿ÂŃ",
        "âĢ¢"
      ],
      [
        "à¥ĩÂŃ",
        "à¥¤"
      ],
      [
        "à¤¤",
        "à¤Ń"
      ],
      [
        "à¤¦",
        "à¤¦"
      ],
      [
        "Ġà¤¤",
        "à¤¹"
      ],
      [
        "à¤Ł",
        "à¤°"
      ],
      [
        "Ġà¤ī",
        "à¤²"
      ],
      [
        "à¤¯à¤¸",
        "à¤®"
      ],
      [
        "à¤¯à¤ķ",
        "à¤¤"
      ],
      [
        "Ġà¤ĵ",
        "à¤°"
      ],
      [
        "Ġà¤ª",
        "à¤£"
      ],
      [
        "à¤Ĺ",
        "à¤¸"
      ],
      [
        "Ġà¤¨",
        "à¤¸à¤ķ"
      ],
      [
        "Ġà¤²",
        "à¤²"
      ],
      [
        "Ġà¤²",
        "à¤¸"
      ],
      [
        "Ġà¤ļ",
        "à¤ķ"
      ],
      [
        "à¤Ĩ",
        "à¤°"
      ],
      [
        "Ġà¥§à¥",
        "¨"
      ],
      [
        "Ġà¤",
        "Ķ"
      ],
      [
        "à¥Ģ",
        "-"
      ],
      [
        "Ġà¤¸à¤®",
        "à¤°"
      ],
      [
        "à¤ķà¤°",
        "à¤¨"
      ],
      [
        "à¥§à¥",
        "¦"
      ],
      [
        "à¤",
        "Ĳ"
      ],
      [
        "à¥į",
        "à¤¿"
      ],
      [
        "à¤¤",
        "à¤¬"
      ],
      [
        "Ġà¤µ",
        "à¤¨à¤®"
      ],
      [
        "Ġà¤¯",
        "à¤¶"
      ],
      [
        "à¤ĸ",
        "à¤²"
      ],
      [
        "à¤¡",
        "à¤°"
      ],
      [
        "à¤Ĩ",
        "à¤¦"
      ],
      [
        "à¤¤à¤µ",
        "à¤®"
      ],
      [
        "à¤®",
        "à¤Ń"
      ],
      [
        "à¤µ",
        "à¤£"
      ],
      [
        "Ġà¤ľ",
        "à¤Ļ"
      ],
      [
        "Ġà¤°",
        "à¤ĺ"
      ],
      [
        "Ġà¤ª",
        "à¤²"
      ],
      [
        "à¤¶",
        "à¤¬"
      ],
      [
        "Ġà¤¨",
        "à¤ľ"
      ],
      [
        "à¤ħ",
        "à¤ª"
      ],
      [
        "Ġà¤Ńà¤Ĺà¤µ",
        "à¤¦"
      ],
      [
        "à¤ĺ",
        "à¤ª"
      ],
      [
        "Ġà¤ĸ",
        "à¤¡"
      ],
      [
        "à¤ľ",
        "à¤¹"
      ],
      [
        "à¤·",
        "à¤§"
      ],
      [
        "à¥Ĥ",
        "à¤ģ"
      ],
      [
        "Ġà¤µ",
        "à¤¡"
      ],
      [
        "à¤Ł",
        "à¤²"
      ],
      [
        "Ġà¤Ĩ",
        "à¤¸à¤ķ"
      ],
      [
        "à¤ĩ",
        "à¤²"
      ],
      [
        "à¤ł",
        "à¤¨"
      ],
      [
        "à¤ĺ",
        "à¤¨"
      ],
      [
        "Ġà¤ı",
        "à¤¤"
      ],
      [
        "Ġà¤¬",
        "à¤ĸà¤¤"
      ],
      [
        "Ġà¤¦",
        "à¤¯"
      ],
      [
        "Ġà¤Ĩ",
        "à¤ī"
      ],
      [
        "à¤µà¤°",
        "à¤²"
      ],
      [
        "à¥¦",
        "à¥¦"
      ],
      [
        "à¥ĭ",
        "Â·"
      ],
      [
        "à¤µ",
        "à¤¡"
      ],
      [
        "à¤·",
        "à¤¯à¤®"
      ],
      [
        "à¤Ń",
        "à¤µà¤¤"
      ],
      [
        "Ġà¤®à¤¨",
        "à¤²"
      ],
      [
        "à¤Ńà¤Ĺà¤µ",
        "à¤¦"
      ],
      [
        "à¤¯",
        "à¤Ń"
      ],
      [
        "Ġà¤¤",
        "à¤®"
      ],
      [
        "Ġà¤ľ",
        "à¤¸à¤ķ"
      ],
      [
        "Ġà¤Ĩ",
        "à¤¦à¤°"
      ],
      [
        "à¥§à¥",
        "®"
      ],
      [
        "à¤¤",
        "à¤ľ"
      ],
      [
        "à¤¸",
        "à¤Ń"
      ],
      [
        "à¤¸",
        "à¤Ļ"
      ],
      [
        "à¤ª",
        "à¤·"
      ],
      [
        "Ġà¤®",
        "à¤¨à¤ķ"
      ],
      [
        "à¤Ń",
        "à¤ı"
      ],
      [
        "Ġà¤µ",
        "à¤ķ"
      ],
      [
        "à¤°à¤®",
        "à¤²"
      ],
      [
        "à¤¯à¤®",
        "à¤·"
      ],
      [
        "à¤°à¤¶",
        "à¤¸"
      ],
      [
        "à¤¯",
        "à¤¬"
      ],
      [
        "à¤²",
        "à¤Ń"
      ],
      [
        "à¤Ĺ",
        "à¤¬"
      ],
      [
        "à¤£",
        "à¤¹à¤°"
      ],
      [
        "Ġà¤¨",
        "à¤ª"
      ],
      [
        "Ġà¤¯",
        "à¤¸à¤²"
      ],
      [
        "à¤Ĩ",
        "à¤¶"
      ],
      [
        "Ġà¤ªà¤¹",
        "à¤²"
      ],
      [
        "Ġà¤ľà¤Ĺ",
        "à¤¦"
      ],
      [
        "Â¯Â¯",
        "Â¯Â¯"
      ],
      [
        "âĢĮ",
        "ÂŃ"
      ],
      [
        "à¥į",
        "Â·"
      ],
      [
        "à¤¨",
        "à¤Ĺ"
      ],
      [
        "à¤¨",
        "à¤Ń"
      ],
      [
        "à¤¨",
        "à¤¹à¤°"
      ],
      [
        "Ġà¤ª",
        "à¤¸"
      ],
      [
        "Ġà¤¬",
        "à¤ľ"
      ],
      [
        "Ġà¤¦",
        "à¤¸"
      ],
      [
        "à¤ĸ",
        "à¤ķà¤°"
      ],
      [
        "à¤ħ",
        "à¤Ĺ"
      ],
      [
        "Ġà¤¸à¤¹",
        "à¤¸"
      ],
      [
        "à¤ķ",
        "à¤°à¤¤"
      ],
      [
        "ÂŃ",
        "à¥¤"
      ],
      [
        "Ġà¤ħ",
        "à¤µà¤¶"
      ],
      [
        "Ġà¤°",
        "à¤£"
      ],
      [
        "Ġà¤¸à¤®",
        "à¤Ŀ"
      ],
      [
        "à¤·",
        "à¤¤à¤®"
      ],
      [
        "à¤Ľ",
        "à¤¤"
      ],
      [
        "à¤ļ",
        "à¤¹"
      ],
      [
        "Ġà¤°",
        "à¤ľ"
      ],
      [
        "à¤ħ",
        "à¤ªà¤¨"
      ],
      [
        "Ġà¤ĸ",
        "à¤°"
      ],
      [
        "à¤¼",
        "à¥ĩ"
      ],
      [
        ".",
        "."
      ],
      [
        "à¤°",
        "à¤ĺ"
      ],
      [
        "à¤¤",
        "à¤¶"
      ],
      [
        "Ġà¤µ",
        "à¤¶"
      ],
      [
        "Ġà¤ľ",
        "à¤µ"
      ],
      [
        "Ġà¤Ĩ",
        "à¤¹"
      ],
      [
        "Ġà¤ī",
        "à¤ķ"
      ],
      [
        "à¤ĩ",
        "à¤¯"
      ],
      [
        "à¤ĩ",
        "à¤ı"
      ],
      [
        "à¤°à¤£",
        "à¤µ"
      ],
      [
        "à¤Ĩ",
        "à¤Ĺ"
      ],
      [
        "Ġà¤§",
        "à¤®"
      ],
      [
        "à¤¸à¤®",
        "à¤¯"
      ],
      [
        "Ġà¤¤à¤°à¤¹",
        "à¤²"
      ],
      [
        "Ġ-",
        "-"
      ],
      [
        "à¤²",
        "à¤¦"
      ],
      [
        "à¤Ī",
        "à¤ķ"
      ],
      [
        "à¤ı",
        "à¤µ"
      ],
      [
        "à¤ĩ",
        "à¤ļ"
      ],
      [
        "Ġà¤Ĺ",
        "à¤ıà¤°"
      ],
      [
        "Ġà¤¦",
        "à¤¤"
      ],
      [
        "Ġà¤°",
        "à¤¸"
      ],
      [
        "à¤°à¤®",
        "à¤£"
      ],
      [
        "à¤Ĩ",
        "à¤§"
      ],
      [
        "Ġà¤ł",
        "à¤¹à¤°"
      ],
      [
        "à¤®à¤£",
        "à¤ķ"
      ],
      [
        "Ġà¥§à¥¬",
        "à¥¬à¥¦"
      ],
      [
        "à¤¾",
        "à¥į"
      ],
      [
        "à¤®",
        "à¤¶"
      ],
      [
        "à¤¹",
        "à¤¦"
      ],
      [
        "Ġà¤µ",
        "à¤°à¤¦"
      ],
      [
        "à¤ĩ",
        "à¤°"
      ],
      [
        "à¤«",
        "à¤°"
      ],
      [
        "à¤¼",
        "à¤¾ÂŃ"
      ],
      [
        "Ġà¤¡",
        "à¤°"
      ],
      [
        "Ġà¤",
        "Ĭ"
      ],
      [
        "à¤¨",
        "à¤ªà¤°"
      ],
      [
        "Ġà¤ª",
        "à¤Łà¤ķ"
      ],
      [
        "à¤£",
        "à¤ª"
      ],
      [
        "à¤£",
        "à¤ļ"
      ],
      [
        "à¤§",
        "à¤¸"
      ],
      [
        "Ġà¤¨",
        "à¤¨"
      ],
      [
        "Ġà¤ī",
        "à¤ªà¤¸"
      ],
      [
        "à¤«",
        "à¤¤"
      ],
      [
        "à¤ħ",
        "à¤Ń"
      ],
      [
        "à¤Ĩ",
        "à¤Ī"
      ],
      [
        "Ġà¤°à¤¹",
        "à¤¸"
      ],
      [
        "Ġà¤ĺ",
        "à¤°à¤ķ"
      ],
      [
        "à¤¤",
        "à¤°à¤®"
      ],
      [
        "Ġà¤¸",
        "à¤ĸ"
      ],
      [
        "Ġà¤ķ",
        "à¤Ľ"
      ],
      [
        "Ġà¤Ń",
        "à¤¤"
      ],
      [
        "à¤¬",
        "à¤ķ"
      ],
      [
        "Ġà¤ľ",
        "à¤ª"
      ],
      [
        "à¤¯",
        "à¤µà¤¨"
      ],
      [
        "à¤²",
        "à¤¤à¤®"
      ],
      [
        "à¤µ",
        "à¤¹à¤°"
      ],
      [
        "à¤µ",
        "à¤°à¤£"
      ],
      [
        "à¤ĸ",
        "à¤¦"
      ],
      [
        "Ġà¤Ńà¤Ĺà¤µ",
        "à¤¤"
      ],
      [
        "à¤ĭ",
        "à¤·"
      ],
      [
        "à¤¨",
        "à¤ľ"
      ],
      [
        "à¥ģ",
        "ÂŃâĢ¢"
      ],
      [
        "Ġà¤®",
        "à¤ķ"
      ],
      [
        "à¤·",
        "à¤µ"
      ],
      [
        "Ġà¤¨",
        "à¤¯"
      ],
      [
        "à¤ı",
        "à¤¤"
      ],
      [
        "à¤°à¤®",
        "à¤®"
      ],
      [
        "à¤ħ",
        "à¤µ"
      ],
      [
        "à¤µà¤¤",
        "à¤®"
      ],
      [
        "Ġà¤Ĩà¤«",
        "à¤¨"
      ],
      [
        "Ġà¤¯à¤¸",
        "à¤ª"
      ],
      [
        "à¤¹",
        "à¤µà¤¸"
      ],
      [
        "Ġà¤ħ",
        "à¤ļ"
      ],
      [
        "Ġà¤¨",
        "à¤°à¤Ń"
      ],
      [
        "Ġà¤ĺ",
        "à¤Ł"
      ],
      [
        "Ġà¤Ĩà¤ļ",
        "à¤®à¤¨"
      ],
      [
        "à¥ĭ",
        "-"
      ],
      [
        "à¤²",
        "à¤¹"
      ],
      [
        "à¤²",
        "à¤ľà¤²"
      ],
      [
        "Ġà¤¦",
        "à¤®"
      ],
      [
        "Ġà¤°",
        "à¤¥"
      ],
      [
        "à¤Ĩ",
        "à¤¨"
      ],
      [
        "à¥įâĢĮ",
        "."
      ],
      [
        "à¤°",
        "à¤¸à¤®"
      ],
      [
        "à¤ľ",
        "à¤µ"
      ],
      [
        "à¤·",
        "à¤Ń"
      ],
      [
        "Ġà¤¬",
        "à¤Ĺ"
      ],
      [
        "Ġà¤ħ",
        "à¤¸à¤²"
      ],
      [
        "Ġà¤¨",
        "à¤ķ"
      ],
      [
        "Ġà¤Ĩ",
        "à¤ªà¤¨"
      ],
      [
        "à¤¾",
        "à¥¥"
      ],
      [
        "à¤¤",
        "à¤ªà¤¸"
      ],
      [
        "à¥ĩ",
        "ÂŃâĢ¢"
      ],
      [
        "à¤¯",
        "à¤£à¤ķ"
      ],
      [
        "à¤ª",
        "à¤Ł"
      ],
      [
        "à¤Ĺ",
        "à¤ļ"
      ],
      [
        "à¤Ĺ",
        "à¤¡"
      ],
      [
        "à¤ľ",
        "à¤¨à¤ķ"
      ],
      [
        "Ġà¤¹",
        "à¤µ"
      ],
      [
        "Ġà¤Ĺ",
        "à¤ıà¤ķ"
      ],
      [
        "Ġà¤¨",
        "à¤²"
      ],
      [
        "à¤ı",
        "à¤ªà¤Ľ"
      ],
      [
        "à¤¹à¤°",
        "à¤£à¤ķ"
      ],
      [
        "à¤ł",
        "à¤ķ"
      ],
      [
        "à¤°à¤Ń",
        "à¤¦"
      ],
      [
        "à¥§à¥",
        "¬"
      ],
      [
        "Ġà¤īà¤ª",
        "à¤¯"
      ],
      [
        "à¥",
        "ĳ"
      ],
      [
        "Ġà¤ª",
        "à¤ŀ"
      ],
      [
        "Ġà¤ħ",
        "à¤ªà¤°"
      ],
      [
        "Ġà¤Ľ",
        "à¤°"
      ],
      [
        "Ġà¤ħà¤¨",
        "à¤¨"
      ],
      [
        "Ġà¤®à¤¨",
        "à¤¸"
      ],
      [
        "Ġà¤¨à¤°",
        "à¤ªà¤¤"
      ],
      [
        "à¤¨",
        "à¤ļ"
      ],
      [
        "à¤¤",
        "à¤ļ"
      ],
      [
        "à¤²",
        "à¤¬"
      ],
      [
        "Ġà¤Ĺ",
        "à¤¦"
      ],
      [
        "à¤¡",
        "à¤ª"
      ],
      [
        "à¤Ĩ",
        "à¤ª"
      ],
      [
        "à¤µà¤¤",
        "à¤¨"
      ],
      [
        "Ġà¤ĺ",
        "à¤¨"
      ],
      [
        "à¤¤à¤°",
        "à¤«"
      ],
      [
        "à¤¯à¤µ",
        "à¤¹"
      ],
      [
        "à¥į",
        "à¥ĩ"
      ],
      [
        "à¤²",
        "à¤ª"
      ],
      [
        "Ġà¤ķ",
        "à¤µ"
      ],
      [
        "Ġà¤®",
        "à¤¹à¤°"
      ],
      [
        "Ġà¤°",
        "à¤ļ"
      ],
      [
        "à¤Ī",
        "à¤¶"
      ],
      [
        "à¤ī",
        "à¤°"
      ],
      [
        "à¤¾ÂŃ",
        "à¥¤"
      ],
      [
        "Ġà¤¤à¤¸",
        "à¤¥"
      ],
      [
        "à¥",
        "Ľ"
      ],
      [
        "à¤¤",
        "à¤Ĺ"
      ],
      [
        "à¤²",
        "à¤ľ"
      ],
      [
        "à¤¹",
        "à¤¯"
      ],
      [
        "à¤ª",
        "à¤¹à¤°"
      ],
      [
        "Ġà¤Ń",
        "à¤²"
      ],
      [
        "Ġà¤Ĺ",
        "à¤¹"
      ],
      [
        "Ġà¤°",
        "à¤ĸ"
      ],
      [
        "Ġà¥§à¥",
        "¯"
      ],
      [
        "à¥į",
        "à¥ģ"
      ],
      [
        "à¥Ģ",
        "à¤ĥ"
      ],
      [
        "Ġà¤®",
        "à¤®"
      ],
      [
        "à¤ľ",
        "à¤Ĺà¤¤"
      ],
      [
        "Ġà¤¹",
        "à¤Ł"
      ],
      [
        "Ġà¤ī",
        "à¤°"
      ],
      [
        "Ġà¤ī",
        "à¤µ"
      ],
      [
        "Ġà¤ī",
        "à¤ľ"
      ],
      [
        "à¤ī",
        "à¤ªà¤®"
      ],
      [
        "à¤°à¤®",
        "à¤¸"
      ],
      [
        "à¤°à¤¤",
        "à¤ķ"
      ],
      [
        "Ġà¥§à¥",
        "©"
      ],
      [
        "Ġà¤¸à¤¹",
        "à¤ľ"
      ],
      [
        "à¥§à¥",
        "¨"
      ],
      [
        "à¤®",
        "à¤ļ"
      ],
      [
        "à¤µ",
        "à¤Ł"
      ],
      [
        "à¤¦",
        "à¤ª"
      ],
      [
        "à¤ª",
        "à¤ļ"
      ],
      [
        "Ġà¤ķ",
        "à¤®à¤²"
      ],
      [
        "Ġà¤¹",
        "à¤¤"
      ],
      [
        "Ġà¤Ń",
        "à¤µà¤¨"
      ],
      [
        "à¤Ľ",
        "à¤°"
      ],
      [
        "Ġà¤¦",
        "à¤°à¤µ"
      ],
      [
        "à¤§",
        "à¤¦"
      ],
      [
        "à¤¬",
        "à¤¢"
      ],
      [
        "Ġà¤ľ",
        "à¤²à¤®"
      ],
      [
        "à¤Ī",
        "à¤¤"
      ],
      [
        "à¤ı",
        "à¤¸"
      ],
      [
        "à¤ħ",
        "à¤ķ"
      ],
      [
        "à¤Ĩ",
        "à¤®"
      ],
      [
        "Ġà¤Ĳ",
        "à¤¶"
      ],
      [
        "à¥",
        "ŀ"
      ],
      [
        "à¤¨",
        "à¤¶"
      ],
      [
        "à¤¦",
        "à¤¯à¤®"
      ],
      [
        "Ġà¤¸",
        "à¤«à¤²"
      ],
      [
        "Ġà¤®",
        "à¤ľ"
      ],
      [
        "à¤£",
        "à¤°"
      ],
      [
        "à¤¡",
        "à¤¦"
      ],
      [
        "à¤ħ",
        "à¤²"
      ],
      [
        "Ġà¤ĩ",
        "à¤¨à¤ķ"
      ],
      [
        "à¥ĩà¤Ĥ",
        ","
      ],
      [
        "à¥ĭà¤Ĥ",
        ","
      ],
      [
        "Ġà¤ªà¤°",
        "à¤¸"
      ],
      [
        "à¤¸à¤®",
        "à¤¸"
      ],
      [
        "à¤¼",
        "à¥Ģ"
      ],
      [
        "Ġà¤ķà¤¹",
        "à¤²"
      ],
      [
        "à¥§à¥",
        "«"
      ],
      [
        "à¤¨",
        "à¤¥"
      ],
      [
        "à¤®",
        "à¤Ĺà¤°"
      ],
      [
        "à¤¯",
        "à¤Ĺ"
      ],
      [
        "à¤Ĺ",
        "à¤¹à¤°"
      ],
      [
        "Ġà¤¹",
        "à¤µà¤¸"
      ],
      [
        "à¤¶",
        "à¤¸"
      ],
      [
        "Ġà¤Ĺ",
        "à¤¸"
      ],
      [
        "Ġà¤¤",
        "à¤Ł"
      ],
      [
        "Ġà¤ħ",
        "à¤ĸ"
      ],
      [
        "à¤ļ",
        "à¤¸"
      ],
      [
        "Ġà¤¨",
        "à¤Ńà¤ıà¤ķ"
      ],
      [
        "à¤¡",
        "à¤¸"
      ],
      [
        "à¤ĩ",
        "à¤°à¤¹"
      ],
      [
        "à¤ħ",
        "à¤¥"
      ],
      [
        "à¤¾à¤ģ",
        "ÂŃ"
      ],
      [
        "à¤°à¤¹",
        "à¤¸"
      ],
      [
        "à¤ľà¤¨",
        "à¤®"
      ],
      [
        "à¤®à¤£",
        "à¤²"
      ],
      [
        "Ġà¤ķà¤¹",
        "à¤¨"
      ],
      [
        "Ġà¤ıà¤ķ",
        "à¤®"
      ],
      [
        "à¤¨",
        "à¤¸à¤ķ"
      ],
      [
        "à¤²",
        "à¤¹à¤°"
      ],
      [
        "Ġà¤¸",
        "à¤«"
      ],
      [
        "Ġà¤Ĺ",
        "à¤²"
      ],
      [
        "à¤§",
        "à¤²"
      ],
      [
        "à¤¬",
        "à¤¦"
      ],
      [
        "à¤¥",
        "à¤¬"
      ],
      [
        "à¤Ł",
        "à¤ª"
      ],
      [
        "Ġà¤ĺ",
        "à¤¡"
      ],
      [
        "Ġà¥§à¥",
        "ª"
      ],
      [
        "Ġà¤ĩà¤¸",
        "à¤¸"
      ],
      [
        "Ġà¤ħà¤µ",
        "à¤§"
      ],
      [
        "à¤¨",
        "à¤¸à¤®"
      ],
      [
        "à¤¤",
        "à¤°à¤ķ"
      ],
      [
        "à¤¤",
        "à¤°à¤£"
      ],
      [
        "à¤®",
        "à¤¬"
      ],
      [
        "à¤²",
        "à¤°"
      ],
      [
        "à¤µ",
        "à¤°à¤®"
      ],
      [
        "à¤ª",
        "à¤ª"
      ],
      [
        "Ġà¤¸",
        "à¤ļ"
      ],
      [
        "Ġà¤¸",
        "à¤°à¤ķ"
      ],
      [
        "à¤·",
        "à¤¹à¤°"
      ],
      [
        "Ġà¤¨",
        "à¤ļ"
      ],
      [
        "Ġà¤°",
        "à¤ĸà¤¨"
      ],
      [
        "à¤ı",
        "à¤Ĺ"
      ],
      [
        "Ġà¤Ĩ",
        "à¤ı"
      ],
      [
        "Ġà¤ī",
        "à¤¡"
      ],
      [
        "à¤ĩ",
        "à¤®"
      ],
      [
        "à¤ħ",
        "à¤ľ"
      ],
      [
        "à¤ħ",
        "à¤¬"
      ],
      [
        "à¤ŀ",
        "à¤¹à¤°"
      ],
      [
        "à¤¾à¤Ĥ",
        "ÂŃ"
      ],
      [
        "à¤Ĩ",
        "à¤īà¤¨"
      ],
      [
        "Ġà¥§à¥",
        "®"
      ],
      [
        "à¥§à¥",
        "ª"
      ],
      [
        "Ġà¤Ŀ",
        "à¤¨"
      ],
      [
        "à¤®",
        "à¤ļà¤¨"
      ],
      [
        "à¤¦",
        "à¤§"
      ],
      [
        "à¤¦",
        "à¤¹à¤°"
      ],
      [
        "Ġà¤¸",
        "à¤ŀ"
      ],
      [
        "ÂŃ",
        "âĪĻ"
      ],
      [
        "Ġà¤¬",
        "à¥ľ"
      ],
      [
        "Ġà¤ħ",
        "à¤Ļ"
      ],
      [
        "à¤Ł",
        "à¤¹à¤°"
      ],
      [
        "Ġà¤°",
        "à¤®"
      ],
      [
        "à¤Ĩ",
        "à¤ķ"
      ],
      [
        "à¤®à¤¹",
        "à¤¨"
      ],
      [
        "à¤Ŀ",
        "à¤¨"
      ],
      [
        "Ġ",
        "."
      ],
      [
        "à¤°",
        "à¤Ĩ"
      ],
      [
        "à¤¯",
        "à¤§"
      ],
      [
        "à¤µ",
        "à¤ļà¤¨"
      ],
      [
        "à¥Ī",
        "-"
      ],
      [
        "à¥Ĥ",
        "ÂŃ"
      ],
      [
        "Ġà¤¬",
        "à¤ĸ"
      ],
      [
        "à¤ı",
        "à¤īà¤Ł"
      ],
      [
        "à¤ī",
        "à¤ł"
      ],
      [
        "Ġà¤ĩ",
        "à¤°"
      ],
      [
        "à¤¯à¤®",
        "à¤¹"
      ],
      [
        "à¤®à¤¨",
        "à¤¸"
      ],
      [
        "à¤®à¤¹",
        "à¤¸"
      ],
      [
        "Ġà¤Ī",
        "à¤¨"
      ],
      [
        "Ġà¤¤à¤°à¤¹",
        "à¤¸"
      ],
      [
        "à¤¡à¤µ",
        "à¤¹à¤°"
      ],
      [
        "Ġà¤¨à¤Ń",
        "à¤Ī"
      ],
      [
        "à¥Ģ",
        "ÂŃâĢ¢"
      ],
      [
        "à¤²",
        "à¤ļ"
      ],
      [
        "à¤µ",
        "à¤Ĺà¤£"
      ],
      [
        "à¤¸",
        "à¤°à¤£"
      ],
      [
        "à¤ª",
        "à¤ŀ"
      ],
      [
        "Ġà¤¸",
        "à¤¸"
      ],
      [
        "Ġà¤ķ",
        "à¤¬"
      ],
      [
        "à¤Ĺ",
        "à¤ª"
      ],
      [
        "à¤Ĺ",
        "à¤²à¤®"
      ],
      [
        "à¤ľ",
        "à¤ª"
      ],
      [
        "à¤Ń",
        "à¤¦"
      ],
      [
        "Ġà¤¬",
        "à¤¯"
      ],
      [
        "Ġà¤¦",
        "à¤£"
      ],
      [
        "à¤§",
        "à¤¨à¤®"
      ],
      [
        "à¤¬",
        "à¤ľ"
      ],
      [
        "à¤¥",
        "à¤¸"
      ],
      [
        "Ġà¤¶",
        "à¤°à¤£"
      ],
      [
        "Ġà¤¶",
        "à¤°à¤£à¤®"
      ],
      [
        "Ġà¤¨",
        "à¤°à¤ķ"
      ],
      [
        "Ġà¤¨",
        "à¤ľà¤°"
      ],
      [
        "à¥ĥ",
        "à¥į"
      ],
      [
        "Ġà¤ī",
        "à¤ªà¤¨"
      ],
      [
        "Ġà¤ī",
        "à¤ªà¤°"
      ],
      [
        "à¤«",
        "à¤ķ"
      ],
      [
        "à¤Ĩ",
        "à¤ļ"
      ],
      [
        "Ġà¥§à¥",
        "«"
      ],
      [
        "Ġà¤ħà¤µ",
        "à¤¸à¤°"
      ],
      [
        "à¤°",
        "à¤¯à¤¤"
      ],
      [
        "à¤¨",
        "à¤Ľ"
      ],
      [
        "à¤¨",
        "à¤Ńà¤¯"
      ],
      [
        "à¤µ",
        "à¤ķà¤°"
      ],
      [
        "à¤¦",
        "à¤Ĺ"
      ],
      [
        "Ġà¤ķ",
        "à¤£"
      ],
      [
        "à¥Ī",
        "."
      ],
      [
        "Ġà¤®",
        "à¤Ĺ"
      ],
      [
        "à¤·",
        "à¤µà¤°"
      ],
      [
        "à¤¶",
        "à¤¦"
      ],
      [
        "à¤¶",
        "à¤¹à¤°"
      ],
      [
        "Ġà¤¬",
        "à¤·à¤¤à¤®"
      ],
      [
        "à¤¬",
        "à¤®"
      ],
      [
        "Ġà¤¶",
        "à¤®"
      ],
      [
        "à¤ļ",
        "à¤¢"
      ],
      [
        "à¤Ī",
        "à¤¨"
      ],
      [
        "à¤ı",
        "à¤¨à¤¨"
      ],
      [
        "à¤ħ",
        "à¤µà¤¸"
      ],
      [
        "Ġà¤Ńà¤Ĺà¤µ",
        "à¤¨"
      ],
      [
        "à¤°à¤¤",
        "à¤®"
      ],
      [
        "à¤Ĩ",
        "à¤ĩ"
      ],
      [
        "à¤Ĩ",
        "à¤¨à¤¨"
      ],
      [
        "à¤°à¤¦",
        "à¤¦"
      ],
      [
        "Ġà¤ł",
        "à¤²"
      ],
      [
        "Ġà¤ħà¤¸",
        "à¤¤"
      ],
      [
        "Ġà¥®",
        "à¥¯"
      ],
      [
        "à¤¯",
        "à¤µà¤¤"
      ],
      [
        "à¤Ĺ",
        "à¤¬à¤¹"
      ],
      [
        "Ġà¤¹",
        "à¤²"
      ],
      [
        "Ġà¤¬",
        "à¤°à¤¸"
      ],
      [
        "à¤Ł",
        "à¤¸"
      ],
      [
        "à¤Ī",
        "à¤²"
      ],
      [
        "Ġà¤Ĩ",
        "à¤ķà¤°"
      ],
      [
        "Ġà¤ī",
        "à¤¸à¤®"
      ],
      [
        "Ġà¤ī",
        "à¤ªà¤®"
      ],
      [
        "Ġà¤¯",
        "à¤®"
      ],
      [
        "à¤ĸ",
        "à¤£"
      ],
      [
        "à¤ī",
        "à¤ļ"
      ],
      [
        "à¤ħ",
        "à¤ªà¤¸à¤µ"
      ],
      [
        "à¤¯à¤¸",
        "à¤¬"
      ],
      [
        "Ġà¤Ľ",
        "à¤²"
      ],
      [
        "à¤ĺ",
        "à¤¸"
      ],
      [
        "Ġà¥§à¥",
        "§"
      ],
      [
        "à¤§à¤¨",
        "à¤¬"
      ],
      [
        "Ġà¥¨",
        "à¥ª"
      ],
      [
        "Ġà¤ħà¤ª",
        "à¤µ"
      ],
      [
        "à¤ĩà¤¬à¤²",
        "à¤²"
      ],
      [
        "à¥į",
        "à¥Ģ"
      ],
      [
        "à¤µ",
        "à¤¬"
      ],
      [
        "à¤µ",
        "à¤ľà¤¨"
      ],
      [
        "à¤ª",
        "à¤Łà¤ķ"
      ],
      [
        "Ġà¤¸",
        "à¤Ĺ"
      ],
      [
        "à¤ľ",
        "à¤¸à¤²"
      ],
      [
        "à¤·",
        "à¤¸à¤®"
      ],
      [
        "à¤£",
        "à¤¬"
      ],
      [
        "à¤¶",
        "à¤¨à¤®"
      ],
      [
        "Ġà¤Ĺ",
        "à¤µ"
      ],
      [
        "Ġà¤¦",
        "à¤¶à¤¨"
      ],
      [
        "à¤§",
        "à¤¨à¤ķ"
      ],
      [
        "à¤¥",
        "à¤¹à¤°"
      ],
      [
        "Ġà¤¨",
        "à¤¸"
      ],
      [
        "à¤Ī",
        "à¤¸"
      ],
      [
        "Ġà¤Ĩ",
        "à¤Ń"
      ],
      [
        "à¤¡",
        "à¤µà¤²"
      ],
      [
        "Ġà¤ļ",
        "à¤²à¤¨"
      ],
      [
        "Ġà¤ªà¤°",
        "à¤¨"
      ],
      [
        "à¤¸à¤ķ",
        "à¤²"
      ],
      [
        "Ġà¤ĺ",
        "à¤®"
      ],
      [
        "Ġà¤īà¤¨",
        "à¤¸"
      ],
      [
        "Ġà¤Ī",
        "à¤°"
      ],
      [
        "à¥§à¥",
        "§"
      ],
      [
        "à¤¤",
        "à¤µà¤°"
      ],
      [
        "à¤¯",
        "à¤ļ"
      ],
      [
        "à¥ģ",
        "."
      ],
      [
        "à¤¸",
        "à¤¹à¤¸"
      ],
      [
        "à¤ª",
        "à¤ľ"
      ],
      [
        "Ġà¤Ń",
        "à¤ľ"
      ],
      [
        "Ġà¤Ń",
        "à¤µà¤¤"
      ],
      [
        "à¤£",
        "à¤¯"
      ],
      [
        "à¤¬",
        "à¤¡"
      ],
      [
        "Ġà¤°",
        "à¤ķà¤®"
      ],
      [
        "à¤Ī",
        "à¤®"
      ],
      [
        "à¤ī",
        "à¤¸à¤ķ"
      ],
      [
        "Ġà¤ĩ",
        "à¤®"
      ],
      [
        "Ġà¤ĩ",
        "à¤ľ"
      ],
      [
        "à¤°à¤¤",
        "à¤°"
      ],
      [
        "Ġà¤ªà¤°",
        "à¤¬"
      ],
      [
        "à¤Ĩ",
        "à¤µ"
      ],
      [
        "Ġà¤ĸ",
        "à¤£"
      ],
      [
        "à¤¨à¤®",
        "à¤¸"
      ],
      [
        "Ġà¤ķà¤¹",
        "à¤ķà¤°"
      ],
      [
        "à¥§à¥",
        "©"
      ],
      [
        "à¤ĩà¤¬",
        "à¤²à¤ķ"
      ],
      [
        "Ġà¤¦à¤®",
        "à¤¯à¤¨"
      ],
      [
        "à¥",
        "ĺ"
      ],
      [
        "à¤¤",
        "à¤®à¤¨"
      ],
      [
        "à¤²",
        "à¤ĸ"
      ],
      [
        "à¤µ",
        "à¤§à¤°"
      ],
      [
        "Ġà¤ķ",
        "à¤Ł"
      ],
      [
        "Ġà¤ª",
        "à¤ļ"
      ],
      [
        "à¤Ĺ",
        "à¤¹"
      ],
      [
        "à¤Ĺ",
        "à¤ľ"
      ],
      [
        "Ġà¤Ĺ",
        "à¤ľ"
      ],
      [
        "Ġà¤Ĺ",
        "à¤Ľ"
      ],
      [
        "Ġà¤¤",
        "à¤¸à¤°"
      ],
      [
        "Ġà¤ħ",
        "à¤£"
      ],
      [
        "à¤ļ",
        "à¤µ"
      ],
      [
        "Ġà¤Ĩ",
        "à¤ł"
      ],
      [
        "Ġà¤¯",
        "à¤¨"
      ],
      [
        "Ġà¤ĩ",
        "à¤·"
      ],
      [
        "à¤ŀ",
        "à¤ķ"
      ],
      [
        "à¤¸à¤®",
        "à¤¯à¤®"
      ],
      [
        "à¤¯à¤®",
        "à¤¯"
      ],
      [
        "Ġà¥§à¥",
        "Ń"
      ],
      [
        "à¥¨",
        "à¥¦"
      ],
      [
        "à¤ķà¤°à¤£",
        "à¤ķ"
      ],
      [
        "à¥ĪÂŃ",
        "à¥¤"
      ],
      [
        "Ġà¤Ķ",
        "à¤·à¤§"
      ],
      [
        "à¤°",
        "à¤¯à¤®"
      ],
      [
        "à¤¨",
        "à¤¹à¤¨"
      ],
      [
        "à¥ĩ",
        "."
      ],
      [
        "à¤ķ",
        "à¤£"
      ],
      [
        "à¤®",
        "à¤ķà¤°"
      ],
      [
        "à¤²",
        "à¤¡"
      ],
      [
        "Ġà¤ª",
        "à¤¡"
      ],
      [
        "Ġà¤Ń",
        "à¤Ī"
      ],
      [
        "Ġà¤Ń",
        "à¤ľà¤¨"
      ],
      [
        "Ġà¤¬",
        "à¤®"
      ],
      [
        "Ġà¤¬",
        "à¤ļà¤¨"
      ],
      [
        "Ġà¤¦",
        "à¤°à¤¬"
      ],
      [
        "Ġà¤¶",
        "à¤¨"
      ],
      [
        "Ġà¤Ĩ",
        "à¤ıà¤°"
      ],
      [
        "Ġà¤ī",
        "à¤Ĺ"
      ],
      [
        "à¤ĸ",
        "à¤ª"
      ],
      [
        "à¤ĩ",
        "à¤µ"
      ],
      [
        "à¤ĩ",
        "à¤¸à¤ķ"
      ],
      [
        "à¤¾ÂŃ",
        "âĪĻ"
      ],
      [
        "à¤ĺ",
        "à¤Ł"
      ],
      [
        "à¥įâĢĮ",
        "ÂŃâĢ¢"
      ],
      [
        "Ġà¤ıà¤ķ",
        "à¤¤"
      ],
      [
        "Ġà¥§à¥",
        "§à¥"
      ],
      [
        "à¤·à¤£",
        "à¤®"
      ],
      [
        "Ġà¤īà¤¸",
        "à¤¸"
      ],
      [
        "Ġà¤¹à¤¨",
        "à¤¹à¤¨"
      ],
      [
        "Ġà¤¸à¤¹à¤°",
        "à¤®"
      ],
      [
        "à¤Ĳ",
        "à¤¸"
      ],
      [
        "à¤¿",
        "."
      ],
      [
        "à¤¿",
        "à¥į"
      ],
      [
        "à¤ķ",
        "à¤°à¤ķ"
      ],
      [
        "à¥ĭ",
        "à¤ģ"
      ],
      [
        "à¤¯",
        "à¤·"
      ],
      [
        "à¤µ",
        "à¤°à¤¤"
      ],
      [
        "à¤¹",
        "à¤¨à¤®"
      ],
      [
        "à¤¦",
        "à¤£"
      ],
      [
        "à¤¦",
        "à¤Ń"
      ],
      [
        "à¤Ĥ",
        "ÂŃ"
      ],
      [
        "Ġà¤Ń",
        "à¤ĩà¤¨"
      ],
      [
        "Ġà¤µ",
        "à¤¤"
      ],
      [
        "Ġà¤ľ",
        "à¤¨à¤ķ"
      ],
      [
        "à¤Ī",
        "à¤°"
      ],
      [
        "Ġà¤¯",
        "à¤°"
      ],
      [
        "Ġà¤²",
        "à¤ľ"
      ],
      [
        "à¤ĥ",
        "ÂŃ"
      ],
      [
        "à¤ħ",
        "à¤¶"
      ],
      [
        "à¤ħ",
        "à¤ļ"
      ],
      [
        "à¤ħ",
        "à¤ªà¤°"
      ],
      [
        "à¤°à¤¹",
        "à¤²"
      ],
      [
        "Ġà¤Ľ",
        "à¤¦"
      ],
      [
        "à¤¿à¤Ĥ",
        "ÂŃ"
      ],
      [
        "Ġà¤¸à¤¹",
        "à¤¯"
      ],
      [
        "à¤ķà¤°à¤£",
        "à¤¨"
      ],
      [
        "à¤¯",
        "à¤ķà¤°"
      ],
      [
        "à¤¯",
        "à¤£à¤²"
      ],
      [
        "à¤¦",
        "à¤ļ"
      ],
      [
        "à¤ľ",
        "à¤§"
      ],
      [
        "à¤·",
        "à¤¬"
      ],
      [
        "à¤·",
        "à¤¯à¤¹à¤°"
      ],
      [
        "Ġà¤Ń",
        "à¤Ł"
      ],
      [
        "Ġà¤Ń",
        "à¤°à¤¤"
      ],
      [
        "Ġà¤Ĺ",
        "à¤®"
      ],
      [
        "à¤Ń",
        "à¤ľà¤¨"
      ],
      [
        "à¤Ń",
        "à¤ıà¤¨"
      ],
      [
        "Ġà¤µ",
        "à¤¶à¤®"
      ],
      [
        "Ġà¤ħ",
        "à¤µà¤¨"
      ],
      [
        "Ġà¤ħ",
        "à¤ªà¤®"
      ],
      [
        "Ġà¤¨",
        "à¤¬"
      ],
      [
        "à¤Ł",
        "à¤¬"
      ],
      [
        "à¤ı",
        "à¤¥"
      ],
      [
        "Ġà¤Ĩ",
        "à¤²"
      ],
      [
        "Ġà¤¯",
        "à¤¸à¤®"
      ],
      [
        "à¤ĸ",
        "à¤¹à¤°"
      ],
      [
        "Ġà¤²",
        "à¤®à¤ľ"
      ],
      [
        "Ġà¤¸à¤®",
        "à¤¯à¤ķ"
      ],
      [
        "à¤°à¤¹",
        "à¤®"
      ],
      [
        "à¤°à¤¹",
        "à¤¦"
      ],
      [
        "à¤ŀ",
        "à¤ª"
      ],
      [
        "à¤ĺ",
        "à¤ķ"
      ],
      [
        "à¥įâĢĮ",
        "âĢĮÂŃ"
      ],
      [
        "à¤Ļ",
        "à¤ķ"
      ],
      [
        "à¤®à¤¨",
        "à¤®"
      ],
      [
        "à¤¼",
        "ÂŃ"
      ],
      [
        "Ġà¤Ĭ",
        "à¤ªà¤°"
      ],
      [
        "à¤°",
        "à¤Ĺà¤°"
      ],
      [
        "à¤¤",
        "à¤°à¤¸"
      ],
      [
        "à¤¯",
        "à¤¨à¤ķ"
      ],
      [
        "à¥ģ",
        "à¥į"
      ],
      [
        "à¤ª",
        "à¤Ń"
      ],
      [
        "Ġà¤ķ",
        "à¤Ń"
      ],
      [
        "Ġà¤ª",
        "à¤§"
      ],
      [
        "Ġà¤®",
        "à¤ķà¤µ"
      ],
      [
        "à¤·",
        "à¤¯à¤ķ"
      ],
      [
        "à¤¶",
        "à¤¨à¤ķ"
      ],
      [
        "Ġà¤Ĺ",
        "à¤Ļ"
      ],
      [
        "Ġà¤¤",
        "à¤¨à¤¹"
      ],
      [
        "Ġà¤¶",
        "à¤Ļ"
      ],
      [
        "Ġà¤ľ",
        "à¤°"
      ],
      [
        "à¤Ł",
        "à¤µ"
      ],
      [
        "à¤Ī",
        "à¤¹à¤°"
      ],
      [
        "à¤ħ",
        "à¤µà¤¤"
      ],
      [
        "à¤Ĩ",
        "à¤²"
      ],
      [
        "à¤¸à¤®",
        "à¤°"
      ],
      [
        "à¤ľà¤¨",
        "à¤¸"
      ],
      [
        "à¤°à¤¸",
        "à¤°"
      ],
      [
        "à¤Ńà¤Ĺà¤µ",
        "à¤¤"
      ],
      [
        "à¤ĵ",
        "à¤¸"
      ],
      [
        "Ġà¥¨",
        "à¥¦"
      ],
      [
        "Ġà¤·",
        "à¤²"
      ],
      [
        "à¥į",
        "à¥ĥ"
      ],
      [
        "à¤°",
        "à¤ŀ"
      ],
      [
        "à¤¨",
        "à¤·"
      ],
      [
        "à¤¿",
        "à¤¿"
      ],
      [
        "à¤ķ",
        "à¤¬"
      ],
      [
        "à¤ª",
        "à¤¬"
      ],
      [
        "à¤ª",
        "à¤°à¤ķ"
      ],
      [
        "à¤£",
        "à¤ľ"
      ],
      [
        "à¤£",
        "à¤¤à¤¯"
      ],
      [
        "à¤Ń",
        "à¤¸"
      ],
      [
        "à¤Ľ",
        "à¤¸"
      ],
      [
        "à¤§",
        "à¤Ń"
      ],
      [
        "à¤Ł",
        "à¤¦"
      ],
      [
        "à¤Ī",
        "à¤¦"
      ],
      [
        "Ġà¤ī",
        "à¤¸à¤¨"
      ],
      [
        "à¤ĸ",
        "à¤¬"
      ],
      [
        "à¤ĩ",
        "à¤¨à¤¨"
      ],
      [
        "à¤°à¤®",
        "à¤°"
      ],
      [
        "à¤°à¤¹",
        "à¤ķ"
      ],
      [
        "Ġà¤ªà¤°",
        "à¤²"
      ],
      [
        "Ġà¤§",
        "à¤ª"
      ],
      [
        "à¤ĺ",
        "à¤®"
      ],
      [
        "Ġà¤ı",
        "à¤¹"
      ],
      [
        "à¤īà¤¨",
        "à¤²"
      ],
      [
        "Ġà¤«",
        "à¤°à¤ķ"
      ],
      [
        "Ġà¤«",
        "à¤²à¤ķ"
      ],
      [
        "Ġà¤ĺ",
        "à¤£"
      ],
      [
        "à¤¤à¤®",
        "à¤§"
      ],
      [
        "à¤®à¤¹",
        "à¤¤"
      ],
      [
        "à¥¨",
        "à¥«"
      ],
      [
        "à¥§à¥",
        "¯"
      ],
      [
        "Ġà¤īà¤ª",
        "à¤ļ"
      ],
      [
        "Ġà¤·",
        "à¤¡"
      ],
      [
        "Ġà¤ĭ",
        "à¤ļ"
      ],
      [
        "à¤ĩà¤¬",
        "à¤²à¤®"
      ],
      [
        "Ġà¤Ĩà¤ĩ",
        "à¤ª"
      ],
      [
        "à¥§à¥®",
        "à¥¯"
      ],
      [
        "Ġ--",
        "-"
      ],
      [
        "à¤°",
        "à¤ªà¤¦"
      ],
      [
        "à¤µ",
        "à¤ªà¤°"
      ],
      [
        "à¤µ",
        "à¤Ńà¤ķ"
      ],
      [
        "à¤¸",
        "à¤¨à¤®"
      ],
      [
        "Ġà¤ķ",
        "à¤¦"
      ],
      [
        "Ġà¤ķ",
        "à¤¶"
      ],
      [
        "Ġà¤ª",
        "à¤Ł"
      ],
      [
        "Ġà¤ª",
        "à¤ĸ"
      ],
      [
        "à¤Ĺ",
        "à¤¶"
      ],
      [
        "à¤ľ",
        "à¤¸à¤°"
      ],
      [
        "à¤Ń",
        "à¤¤"
      ],
      [
        "à¤Ń",
        "à¤²"
      ],
      [
        "Ġà¤¬",
        "à¤²à¤²"
      ],
      [
        "Ġà¤¬",
        "à¥Ŀ"
      ],
      [
        "Ġà¤¦",
        "à¤²"
      ],
      [
        "Ġà¤¦",
        "à¤§"
      ],
      [
        "à¤§",
        "à¤¯"
      ],
      [
        "Ġà¤¨",
        "à¤¶"
      ],
      [
        "à¤Ł",
        "à¤¯"
      ],
      [
        "Ġà¤ļ",
        "à¤®"
      ],
      [
        "à¤°à¤ķ",
        "à¤°"
      ],
      [
        "à¤ł",
        "à¤²"
      ],
      [
        "à¤¯à¤¸",
        "à¤¸à¤®à¤¯"
      ],
      [
        "Ġà¤Ľ",
        "à¤¥"
      ],
      [
        "Ġà¤ĸ",
        "à¤¤à¤°"
      ],
      [
        "à¤¯à¤®",
        "à¤ķ"
      ],
      [
        "à¤¯à¤®",
        "à¤¸"
      ],
      [
        "à¤¤à¤ķ",
        "à¤¶"
      ],
      [
        "Ġà¤ªà¤°à¤®",
        "à¤¹"
      ],
      [
        "Ġà¤¯à¤¸",
        "à¤¬"
      ],
      [
        "Ġà¤ħà¤ª",
        "à¤¹à¤¤"
      ],
      [
        "à¤ķà¤°à¤£",
        "à¤®"
      ],
      [
        "Ġà¤¸à¤¹à¤°",
        "à¤ķ"
      ],
      [
        "Ġà¤Ńà¤ĩ",
        "à¤°à¤¹"
      ],
      [
        "Ġà¤Ńà¤ĩ",
        "à¤¸à¤ķ"
      ],
      [
        "Ġà¤Ńà¤ĩ",
        "à¤°à¤¹à¤¨"
      ],
      [
        "Ġà¤¨à¤Ń",
        "à¤ıà¤°"
      ],
      [
        "Ġà¤°à¤£",
        "à¤¦"
      ],
      [
        "à¤°",
        "à¤ªà¤¤"
      ],
      [
        "à¤°",
        "à¤Ĺà¤¤"
      ],
      [
        "à¤¨",
        "à¤°à¤¨"
      ],
      [
        "à¤®",
        "à¤¥"
      ],
      [
        "à¤¯",
        "à¤¨à¤®"
      ],
      [
        "à¤µ",
        "à¤¢"
      ],
      [
        "à¤¹",
        "à¤ª"
      ],
      [
        "Ġà¤¸",
        "à¤ªà¤¨"
      ],
      [
        "Ġà¤ķ",
        "à¤ļà¤¹à¤°"
      ],
      [
        "Ġà¤ª",
        "à¤¤à¤¨"
      ],
      [
        "Ġà¤®",
        "à¤ı"
      ],
      [
        "Ġà¤®",
        "à¤Ļ"
      ],
      [
        "Ġà¤Ń",
        "à¤¦"
      ],
      [
        "Ġà¤Ń",
        "à¤Ĺ"
      ],
      [
        "Ġà¤Ń",
        "à¤£"
      ],
      [
        "à¤£",
        "à¤¦"
      ],
      [
        "Ġà¤µ",
        "à¤²"
      ],
      [
        "Ġà¤ħ",
        "à¤ľà¤¨"
      ],
      [
        "Ġà¤ľ",
        "à¤Ł"
      ],
      [
        "Ġà¤ľ",
        "à¤¡"
      ],
      [
        "Ġà¤¨",
        "à¤ªà¤¤"
      ],
      [
        "Ġà¥",
        "Ĳ"
      ],
      [
        "à¥ĥ",
        "à¤Ĥ"
      ],
      [
        "à¤ī",
        "à¤Ľ"
      ],
      [
        "Ġà¤ļ",
        "à¤£"
      ],
      [
        "à¤Ĺà¤µ",
        "à¤¦"
      ],
      [
        "Ġà¤Ľ",
        "à¤¤"
      ],
      [
        "Ġà¤®à¤¹",
        "à¤®"
      ],
      [
        "à¤°à¤¦",
        "à¤ľ"
      ],
      [
        "à¤Ŀ",
        "à¤¸"
      ],
      [
        "Ġà¤ªà¤°à¤®",
        "à¤ª"
      ],
      [
        "Ġà¤¹à¤°",
        "à¤·"
      ],
      [
        "à¥§à¥",
        "Ń"
      ],
      [
        "Ġà¥¨",
        "à¥¬"
      ],
      [
        "Ġà¤ħà¤¹",
        "à¤Ļ"
      ],
      [
        "Ġà¤ľà¤¬",
        "à¤¸à¤®"
      ],
      [
        "Ġà¤ĩà¤¦",
        "à¤®à¤¨"
      ],
      [
        "Ġà¤¬à¤ĸ",
        "à¤¤à¤®"
      ],
      [
        "-",
        "à¥į"
      ],
      [
        "à¤°",
        "à¤µà¤°"
      ],
      [
        "à¤°",
        "à¤µà¤¨"
      ],
      [
        "à¤¤",
        "à¤Ĺà¤°"
      ],
      [
        "à¤µ",
        "à¤Ĺà¤°"
      ],
      [
        "à¤µ",
        "à¤Ĺà¤¤"
      ],
      [
        "à¤¦",
        "à¤¹"
      ],
      [
        "à¤¦",
        "à¤¨à¤ķ"
      ],
      [
        "à¤¦",
        "à¤¶à¤®"
      ],
      [
        "à¤ª",
        "à¤ķà¤°"
      ],
      [
        "à¤Ĺ",
        "à¤Ĺ"
      ],
      [
        "Ġà¤®",
        "à¤¦à¤¨"
      ],
      [
        "à¤ľ",
        "à¤¶"
      ],
      [
        "Ġà¤Ĺ",
        "à¤ĩà¤¨"
      ],
      [
        "à¤Ń",
        "à¤Ĺ"
      ],
      [
        "à¤Ń",
        "à¤ıà¤°"
      ],
      [
        "Ġà¤µ",
        "à¤¦"
      ],
      [
        "Ġà¤µ",
        "à¤¨à¤ķ"
      ],
      [
        "Ġà¤¦",
        "à¤¹"
      ],
      [
        "à¤¬",
        "à¤°à¤¸"
      ],
      [
        "Ġà¤ľ",
        "à¤¯à¤®"
      ],
      [
        "Ġà¤ľ",
        "à¤Ĺà¤¨"
      ],
      [
        "à¤Ł",
        "à¤¤"
      ],
      [
        "Ġà¤¯",
        "à¤ķ"
      ],
      [
        "Ġà¤¯",
        "à¤®à¤¦"
      ],
      [
        "à¤ĩ",
        "à¤¹"
      ],
      [
        "à¤ĩ",
        "à¤¹à¤°"
      ],
      [
        "âĢ",
        "Ķ"
      ],
      [
        "Ġà¤ĩ",
        "à¤¹"
      ],
      [
        "à¤Ĩ",
        "à¤µà¤¶"
      ],
      [
        "à¤ķà¤°",
        "à¤¸"
      ],
      [
        "à¥Īà¤Ĥ",
        "-"
      ],
      [
        "Ġà¤ĸ",
        "à¤¸"
      ],
      [
        "à¤ľà¤¨",
        "à¤²"
      ],
      [
        "Ġà¤ĺ",
        "à¤Łà¤¨"
      ],
      [
        "Ġà¤¸à¤¬",
        "à¤²"
      ],
      [
        "à¤°à¤¦",
        "à¤ķ"
      ],
      [
        "Ġà¤ľà¤¨",
        "à¤¤"
      ],
      [
        "à¤®à¤¦",
        "à¤¨"
      ],
      [
        "Ġà¤ķà¤²",
        "à¤¶"
      ],
      [
        "Ġà¥¨",
        "à¥¨"
      ],
      [
        "Ġà¥¨",
        "à¥§"
      ],
      [
        "Ġà¤Ńà¤ı",
        "à¤®"
      ],
      [
        "Ġà¤Ŀ",
        "à¤Ł"
      ],
      [
        "Ġà¤ħà¤²",
        "à¤Ĺ"
      ],
      [
        "à¤µà¤ļ",
        "à¤¨à¤®"
      ],
      [
        "Ġà¥©à¥¦",
        "à¥¨"
      ],
      [
        "à¤°",
        "à¤Ļ"
      ],
      [
        "à¤°",
        "à¤Ĺà¤£"
      ],
      [
        "à¤ķ",
        "à¤°à¤®"
      ],
      [
        "à¤¸",
        "à¤ļ"
      ],
      [
        "à¤¹",
        "à¤®à¤£"
      ],
      [
        "Ġà¤¸",
        "à¤¹à¤¨"
      ],
      [
        "Ġà¤ķ",
        "à¤ļ"
      ],
      [
        "Ġà¤ª",
        "à¥Ŀ"
      ],
      [
        "à¤Ĺ",
        "à¤Ī"
      ],
      [
        "à¤Ĺ",
        "à¤ı"
      ],
      [
        "à¤Ĺ",
        "à¤²à¤ķ"
      ],
      [
        "à¤£",
        "à¤®à¤¯"
      ],
      [
        "Ġà¤¤",
        "à¤ľ"
      ],
      [
        "Ġà¤µ",
        "à¤°à¤£"
      ],
      [
        "Ġà¤¦",
        "à¤ļ"
      ],
      [
        "Ġà¤¦",
        "à¤®à¤¨"
      ],
      [
        "Ġà¤ħ",
        "à¤¯"
      ],
      [
        "Ġà¤ħ",
        "à¤¥"
      ],
      [
        "Ġà¤ħ",
        "à¤«"
      ],
      [
        "à¤ļ",
        "à¤ª"
      ],
      [
        "Ġà¤ľ",
        "à¤¨à¤¨"
      ],
      [
        "à¤Ł",
        "à¤¨à¤ķ"
      ],
      [
        "Ġà¤°",
        "à¤µ"
      ],
      [
        "Ġà¤ī",
        "à¤Ń"
      ],
      [
        "à¤ĸ",
        "à¤¸"
      ],
      [
        "à¤«",
        "à¤¨"
      ],
      [
        "à¤ł",
        "à¤¹à¤°"
      ],
      [
        "à¤ĺ",
        "à¤°à¤®"
      ],
      [
        "Ġà¤ı",
        "à¤ķà¤²"
      ],
      [
        "à¤ľà¤¨",
        "à¤°à¤²"
      ],
      [
        "à¤¯à¤¤",
        "à¤¯"
      ],
      [
        "à¤¼",
        "à¥ĭÂŃ"
      ],
      [
        "Ġà¤¸à¤¤",
        "à¤²"
      ],
      [
        "à¤ķà¤®",
        "à¤²"
      ],
      [
        "à¤°à¤ľ",
        "à¤¸"
      ],
      [
        "Ġà¤¡",
        "à¤°à¤²"
      ],
      [
        "à¥¬",
        "à¥¬"
      ],
      [
        "Ġà¤ľà¤²",
        "à¤§"
      ],
      [
        "Ġà¤«à¤²",
        "à¤¸"
      ],
      [
        "à¤ĸà¤¨",
        "à¤Ĭ"
      ],
      [
        "Ġà¤Ľà¤¥",
        "à¤°à¤ª"
      ],
      [
        "à¥į",
        "à¥Ĥ"
      ],
      [
        "à¥į",
        "à¥¥"
      ],
      [
        "à¤°",
        "à¤Ľ"
      ],
      [
        "à¤°",
        "à¤µà¤ķ"
      ],
      [
        "à¤¤",
        "à¤¨à¤ķ"
      ],
      [
        "à¤¤",
        "à¤¦à¤¨"
      ],
      [
        "à¤¯",
        "à¤Ļ"
      ],
      [
        "à¤¸",
        "à¤¯"
      ],
      [
        "à¤¹",
        "à¤£"
      ],
      [
        "à¤¦",
        "à¤¨à¤®"
      ],
      [
        "Ġà¤¸",
        "à¤¯"
      ],
      [
        "Ġà¤ķ",
        "à¤¸à¤²"
      ],
      [
        "à¤Ĺ",
        "à¤ķà¤°"
      ],
      [
        "à¤Ĺ",
        "à¤¢"
      ],
      [
        "à¤Ĺ",
        "à¤®à¤¨"
      ],
      [
        "Ġà¤®",
        "à¤°à¤£"
      ],
      [
        "à¤ľ",
        "à¤¦"
      ],
      [
        "Ġà¤Ĺ",
        "à¤ª"
      ],
      [
        "Ġà¤¤",
        "à¤Ń"
      ],
      [
        "à¤ļ",
        "à¤¬"
      ],
      [
        "Ġà¤°",
        "à¤®à¤£"
      ],
      [
        "à¤ı",
        "à¤µà¤®"
      ],
      [
        "Ġà¤Ĩ",
        "à¤ªà¤¤"
      ],
      [
        "Ġà¤¯",
        "à¤µ"
      ],
      [
        "Ġà¤²",
        "à¤ĸ"
      ],
      [
        "à¤¡",
        "à¤¹à¤°"
      ],
      [
        "à¤ī",
        "à¤¸à¤²"
      ],
      [
        "à¤ī",
        "à¤ªà¤¦"
      ],
      [
        "à¤ĩ",
        "à¤ľ"
      ],
      [
        "à¤ĩ",
        "à¤Ľ"
      ],
      [
        "à¥Į",
        ","
      ],
      [
        "Ġà¤ĩ",
        "à¤¸à¤®"
      ],
      [
        "Ġà¤ĩ",
        "à¤¤à¤¨"
      ],
      [
        "à¤°à¤¹",
        "à¤µ"
      ],
      [
        "Ġà¤Ľ",
        "à¤ª"
      ],
      [
        "à¤Ĩ",
        "à¤¸"
      ],
      [
        "Ġà¤®à¤¨",
        "à¤¨"
      ],
      [
        "à¤¤à¤®",
        "à¤®"
      ],
      [
        "à¤¿ÂŃ",
        "à¥¤"
      ],
      [
        "à¤¤à¤ķ",
        "à¤ķ"
      ],
      [
        "à¤ķà¤²",
        "à¤¨"
      ],
      [
        "à¤¤à¤¨",
        "à¤®à¤¨"
      ],
      [
        "à¥Įà¤Ĥ",
        ","
      ],
      [
        "à¤ķà¤®",
        "à¤²à¤ķ"
      ],
      [
        "à¥¨",
        "à¥©"
      ],
      [
        "à¤¦à¤ķ",
        "à¤ķ"
      ],
      [
        "à¤ľà¤²",
        "à¤¯"
      ],
      [
        "Ġà¤īà¤ª",
        "à¤Ń"
      ],
      [
        "Ġà¥©",
        "à¥®"
      ],
      [
        "Ġà¤ľà¤²",
        "à¤²"
      ],
      [
        "Ġà¤Ĳ",
        "à¤²"
      ],
      [
        "Ġà¥¬",
        "à¥¦"
      ],
      [
        "Ġà¤¥à¤°",
        "à¤ĺà¤°"
      ],
      [
        "Ġ",
        "?"
      ],
      [
        "à¥į",
        "à¥ĭ"
      ],
      [
        "à¤°",
        "à¤ļà¤²"
      ],
      [
        "à¤¨",
        "à¤Ńà¤ıà¤ķ"
      ],
      [
        "à¤ķ",
        "à¤¯"
      ],
      [
        "à¤®",
        "à¤¨à¤ķ"
      ],
      [
        "à¤²",
        "à¤Ľ"
      ],
      [
        "à¤²",
        "à¤ĺ"
      ],
      [
        "à¤²",
        "à¤Ļ"
      ],
      [
        "à¤²",
        "à¤ĸà¤¨à¤Ĭ"
      ],
      [
        "à¤¸",
        "à¤Ĺ"
      ],
      [
        "à¤¦",
        "à¤¬"
      ],
      [
        "à¤Ĺ",
        "à¤°à¤®"
      ],
      [
        "Ġà¤®",
        "à¤ļ"
      ],
      [
        "Ġà¤®",
        "à¤ıà¤ķ"
      ],
      [
        "à¤ľ",
        "à¤ļà¤ķ"
      ],
      [
        "à¤¶",
        "à¤¶"
      ],
      [
        "à¤§",
        "à¤¬"
      ],
      [
        "Ġà¤ħ",
        "à¤Ľ"
      ],
      [
        "Ġà¤ħ",
        "à¤¸à¤¨"
      ],
      [
        "à¤¥",
        "à¤ľ"
      ],
      [
        "à¤ļ",
        "à¤¯à¤¨"
      ],
      [
        "Ġà¥",
        "¦"
      ],
      [
        "Ġà¤Ĩ",
        "à¤ļà¤°à¤£"
      ],
      [
        "Ġà¤ī",
        "à¤ĸ"
      ],
      [
        "Ġà¤ī",
        "à¤¨à¤®"
      ],
      [
        "Ġà¤²",
        "à¤·à¤¨"
      ],
      [
        "à¤ĩ",
        "à¤Ł"
      ],
      [
        "à¤Ĩ",
        "à¤ī"
      ],
      [
        "à¤ªà¤°",
        "à¤¸"
      ],
      [
        "Ġà¤ĸ",
        "à¤¨"
      ]
    ]
  }
}