{
  "version": "1.0",
  "truncation": null,
  "padding": null,
  "added_tokens": [
    {
      "id": 1000,
      "content": "[SEP]",
      "single_word": false,
      "lstrip": false,
      "rstrip": false,
      "normalized": false,
      "special": true
    },
    {
      "id": 1001,
      "content": "[UNK]",
      "single_word": false,
      "lstrip": false,
      "rstrip": false,
      "normalized": false,
      "special": true
    },
    {
      "id": 1002,
      "content": "[PAD]",
      "single_word": false,
      "lstrip": false,
      "rstrip": false,
      "normalized": false,
      "special": true
    },
    {
      "id": 1003,
      "content": "[CLS]",
      "single_word": false,
      "lstrip": false,
      "rstrip": false,
      "normalized": false,
      "special": true
    }
  ],
  "normalizer": null,
  "pre_tokenizer": {
    "type": "ByteLevel",
    "add_prefix_space": false,
    "trim_offsets": true,
    "use_regex": true
  },
  "post_processor": {
    "type": "ByteLevel",
    "add_prefix_space": true,
    "trim_offsets": false,
    "use_regex": true
  },
  "decoder": {
    "type": "ByteLevel",
    "add_prefix_space": true,
    "trim_offsets": true,
    "use_regex": true
  },
  "model": {
    "type": "BPE",
    "dropout": null,
    "unk_token": null,
    "continuing_subword_prefix": null,
    "end_of_word_suffix": null,
    "fuse_unk": false,
    "byte_fallback": false,
    "ignore_merges": false,
    "vocab": {
      "!": 0,
      "\"": 1,
      "#": 2,
      "$": 3,
      "%": 4,
      "&": 5,
      "'": 6,
      "(": 7,
      ")": 8,
      "*": 9,
      "+": 10,
      ",": 11,
      "-": 12,
      ".": 13,
      "/": 14,
      "0": 15,
      "1": 16,
      "2": 17,
      "3": 18,
      "4": 19,
      "5": 20,
      "6": 21,
      "7": 22,
      "8": 23,
      "9": 24,
      ":": 25,
      ";": 26,
      "<": 27,
      "=": 28,
      ">": 29,
      "?": 30,
      "@": 31,
      "A": 32,
      "B": 33,
      "C": 34,
      "D": 35,
      "E": 36,
      "F": 37,
      "G": 38,
      "H": 39,
      "I": 40,
      "J": 41,
      "K": 42,
      "L": 43,
      "M": 44,
      "N": 45,
      "O": 46,
      "P": 47,
      "Q": 48,
      "R": 49,
      "S": 50,
      "T": 51,
      "U": 52,
      "V": 53,
      "W": 54,
      "X": 55,
      "Y": 56,
      "Z": 57,
      "[": 58,
      "\\": 59,
      "]": 60,
      "^": 61,
      "_": 62,
      "`": 63,
      "a": 64,
      "b": 65,
      "c": 66,
      "d": 67,
      "e": 68,
      "f": 69,
      "g": 70,
      "h": 71,
      "i": 72,
      "j": 73,
      "k": 74,
      "l": 75,
      "m": 76,
      "n": 77,
      "o": 78,
      "p": 79,
      "q": 80,
      "r": 81,
      "s": 82,
      "t": 83,
      "u": 84,
      "v": 85,
      "w": 86,
      "x": 87,
      "y": 88,
      "z": 89,
      "{": 90,
      "|": 91,
      "}": 92,
      "~": 93,
      "¡": 94,
      "¢": 95,
      "£": 96,
      "¤": 97,
      "¥": 98,
      "¦": 99,
      "§": 100,
      "¨": 101,
      "©": 102,
      "ª": 103,
      "«": 104,
      "¬": 105,
      "®": 106,
      "¯": 107,
      "°": 108,
      "±": 109,
      "²": 110,
      "³": 111,
      "´": 112,
      "µ": 113,
      "¶": 114,
      "·": 115,
      "¸": 116,
      "¹": 117,
      "º": 118,
      "»": 119,
      "¼": 120,
      "½": 121,
      "¾": 122,
      "¿": 123,
      "À": 124,
      "Á": 125,
      "Â": 126,
      "Ã": 127,
      "Ä": 128,
      "Å": 129,
      "Æ": 130,
      "Ç": 131,
      "È": 132,
      "É": 133,
      "Ê": 134,
      "Ë": 135,
      "Ì": 136,
      "Í": 137,
      "Î": 138,
      "Ï": 139,
      "Ð": 140,
      "Ñ": 141,
      "Ò": 142,
      "Ó": 143,
      "Ô": 144,
      "Õ": 145,
      "Ö": 146,
      "×": 147,
      "Ø": 148,
      "Ù": 149,
      "Ú": 150,
      "Û": 151,
      "Ü": 152,
      "Ý": 153,
      "Þ": 154,
      "ß": 155,
      "à": 156,
      "á": 157,
      "â": 158,
      "ã": 159,
      "ä": 160,
      "å": 161,
      "æ": 162,
      "ç": 163,
      "è": 164,
      "é": 165,
      "ê": 166,
      "ë": 167,
      "ì": 168,
      "í": 169,
      "î": 170,
      "ï": 171,
      "ð": 172,
      "ñ": 173,
      "ò": 174,
      "ó": 175,
      "ô": 176,
      "õ": 177,
      "ö": 178,
      "÷": 179,
      "ø": 180,
      "ù": 181,
      "ú": 182,
      "û": 183,
      "ü": 184,
      "ý": 185,
      "þ": 186,
      "ÿ": 187,
      "Ā": 188,
      "ā": 189,
      "Ă": 190,
      "ă": 191,
      "Ą": 192,
      "ą": 193,
      "Ć": 194,
      "ć": 195,
      "Ĉ": 196,
      "ĉ": 197,
      "Ċ": 198,
      "ċ": 199,
      "Č": 200,
      "č": 201,
      "Ď": 202,
      "ď": 203,
      "Đ": 204,
      "đ": 205,
      "Ē": 206,
      "ē": 207,
      "Ĕ": 208,
      "ĕ": 209,
      "Ė": 210,
      "ė": 211,
      "Ę": 212,
      "ę": 213,
      "Ě": 214,
      "ě": 215,
      "Ĝ": 216,
      "ĝ": 217,
      "Ğ": 218,
      "ğ": 219,
      "Ġ": 220,
      "ġ": 221,
      "Ģ": 222,
      "ģ": 223,
      "Ĥ": 224,
      "ĥ": 225,
      "Ħ": 226,
      "ħ": 227,
      "Ĩ": 228,
      "ĩ": 229,
      "Ī": 230,
      "ī": 231,
      "Ĭ": 232,
      "ĭ": 233,
      "Į": 234,
      "į": 235,
      "İ": 236,
      "ı": 237,
      "Ĳ": 238,
      "ĳ": 239,
      "Ĵ": 240,
      "ĵ": 241,
      "Ķ": 242,
      "ķ": 243,
      "ĸ": 244,
      "Ĺ": 245,
      "ĺ": 246,
      "Ļ": 247,
      "ļ": 248,
      "Ľ": 249,
      "ľ": 250,
      "Ŀ": 251,
      "ŀ": 252,
      "Ł": 253,
      "ł": 254,
      "Ń": 255,
      "à¤": 256,
      "à¥": 257,
      "Ġà¤": 258,
      "à¤¾": 259,
      "à¥į": 260,
      "à¤°": 261,
      "à¤¨": 262,
      "à¤¿": 263,
      "à¤¤": 264,
      "à¥ĩ": 265,
      "à¤ķ": 266,
      "à¤®": 267,
      "à¥ĭ": 268,
      "à¤¯": 269,
      "à¥ģ": 270,
      "à¥Ģ": 271,
      "à¤²": 272,
      "à¤µ": 273,
      "à¤¸": 274,
      "à¤¹": 275,
      "à¤¦": 276,
      "à¤ª": 277,
      "Ġà¤¸": 278,
      "Ġà¤ķ": 279,
      "à¤Ĥ": 280,
      "Ġà¤ª": 281,
      "à¤Ĺ": 282,
      "à¥Ī": 283,
      "Ġà¤®": 284,
      "à¤ľ": 285,
      "à¤·": 286,
      "Ġà¤¹": 287,
      "à¥Ĥ": 288,
      "Ġà¤Ń": 289,
      "à¤£": 290,
      "à¤¶": 291,
      "Ġà¤Ĺ": 292,
      "Ġà¤¤": 293,
      "à¤Ń": 294,
      "Ġà¤µ": 295,
      "ÂŃ": 296,
      "Ġà¤¬": 297,
      "à¤Ľ": 298,
      "Ġà¤¦": 299,
      "à¤§": 300,
      "Ġà¤ħ": 301,
      "à¤¬": 302,
      "à¤¥": 303,
      "Ġà¤¶": 304,
      "à¤ļ": 305,
      "Ġà¤ľ": 306,
      "Ġà¤¨": 307,
      "à¤Ł": 308,
      "Ġà¤°": 309,
      "à¤Ī": 310,
      "Ġà¥": 311,
      "Ġà¤Ĺà¤°": 312,
      "à¤ı": 313,
      "à¤ģ": 314,
      "à¥ĥ": 315,
      "Ġà¤Ĩ": 316,
      "Ġà¤ī": 317,
      "Ġà¤¯": 318,
      "à¤ĸ": 319,
      "Ġà¤²": 320,
      "à¤¹à¤°": 321,
      "à¤¡": 322,
      "à¤ĥ": 323,
      "à¤ī": 324,
      "Ġà¤Ńà¤¨": 325,
      "à¤ĩ": 326,
      "Ġà¤ļ": 327,
      "à¥Į": 328,
      "à¤°à¤®": 329,
      "Ġà¤ķà¤°": 330,
      "à¤Ĺà¤µ": 331,
      "à¤°à¤ķ": 332,
      "Ġà¥¤": 333,
      "à¤«": 334,
      "à¤ħ": 335,
      "à¤ł": 336,
      "âĢ": 337,
      "Ġà¤¸à¤®": 338,
      "à¤ıà¤ķ": 339,
      "à¤¯à¤¸": 340,
      "à¤¾à¤ģ": 341,
      "Ġà¤ĩ": 342,
      "à¤¨à¤ķ": 343,
      "à¥ĩà¤Ĥ": 344,
      "à¤°à¤¹": 345,
      "à¤ŀ": 346,
      "Ġà¤Ľ": 347,
      "à¥ĭà¤Ĥ": 348,
      "Ġà¤Ńà¤Ĺà¤µ": 349,
      "à¤¾à¤Ĥ": 350,
      "à¤°à¤¤": 351,
      "à¤°à¤£": 352,
      "Ġà¤ªà¤¨": 353,
      "Ġà¤¥": 354,
      "Ġà¤ªà¤°": 355,
      "à¤¾ÂŃ": 356,
      "à¤Ĩ": 357,
      "Ġà¤§": 358,
      "à¤ªà¤¨": 359,
      "à¤µà¤°": 360,
      "à¤¦à¤Ľ": 361,
      "à¤ķà¤°": 362,
      "à¤µà¤¤": 363,
      "à¥¤": 364,
      "à¤Ĺà¤°": 365,
      "Ġà¤ħà¤¨": 366,
      "à¥Īà¤Ĥ": 367,
      "à¤ĺ": 368,
      "Â·": 369,
      "Ġà¤®à¤¨": 370,
      "à¤ªà¤°": 371,
      "à¤¯à¤ķ": 372,
      "à¥įâĢ": 373,
      "Ķà¤°": 374,
      "à¤¸à¤ķ": 375,
      "à¤¢": 376,
      "Ġà¤®à¤¹": 377,
      "Ġà¤ı": 378,
      "Ġà¤ĸ": 379,
      "à¥įâĢĮ": 380,
      "Ġà¤Ķà¤°": 381,
      "à¤¸à¤®": 382,
      "Ġà¥¥": 383,
      "à¤ªà¤¤": 384,
      "à¤¯à¤®": 385,
      "à¤¿à¤Ĥ": 386,
      "à¤īà¤¨": 387,
      "à¤ľà¤¨": 388,
      "à¤°à¤¸": 389,
      "à¤Ļ": 390,
      "Ġà¤«": 391,
      "Ġà¥¤à¥¤": 392,
      "à¤µà¤¨": 393,
      "Ġà¤°à¤¹": 394,
      "à¤Ńà¤¨": 395,
      "Ġà¤ĺ": 396,
      "à¤Ńà¤¯": 397,
      "à¤®à¤¨": 398,
      "Ġà¤ħà¤°": 399,
      "Ġà¤Ĩà¤«": 400,
      "à¤¸à¤²": 401,
      "Ġà¤¸à¤ķ": 402,
      "à¤¤à¤®": 403,
      "à¤¯à¤¤": 404,
      "Ġà¤¬à¤¨": 405,
      "à¤¸à¤°": 406,
      "âĢ¢": 407,
      "Ġà¤¸à¤¬": 408,
      "à¤¨à¤®": 409,
      "à¤°à¤¦": 410,
      "Ġà¤Ńà¤¯": 411,
      "à¤¿ÂŃ": 412,
      "à¤¨à¤¨": 413,
      "à¤µà¤¸": 414,
      "§à¥": 415,
      "à¤¯à¤¨": 416,
      "à¥ĭÂŃ": 417,
      "à¤²à¤ķ": 418,
      "à¤®à¤¹": 419,
      "à¤¤à¤°": 420,
      "à¤Ľà¤¨": 421,
      "à¤µà¤ķ": 422,
      "à¤µà¤²": 423,
      "à¤®à¤ķ": 424,
      "à¤ªà¤Ľ": 425,
      "Ġà¤īà¤¨": 426,
      "Ġà¤ł": 427,
      "à¤²à¤®": 428,
      "à¥¦": 429,
      "à¤¸à¤¨": 430,
      "à¤Ŀ": 431,
      "Ġà¤¯à¤¹": 432,
      "à¥Ģà¤Ĥ": 433,
      "à¤ıà¤°": 434,
      "à¤°à¤µ": 435,
      "à¤¼": 436,
      "à¤®à¤£": 437,
      "à¤¦à¤°": 438,
      "Ġà¤ķà¤¹": 439,
      "à¤°à¤²": 440,
      "à¤¤à¤ķ": 441,
      "Ġà¤īà¤¤": 442,
      "Ġà¤µà¤°": 443,
      "à¤°à¤¨": 444,
      "à¤ķà¤²": 445,
      "à¤¤à¤¨": 446,
      "Ġà¤ķà¤°à¤¨": 447,
      "Ġà¤ľà¤¨": 448,
      "à¤Ĺà¤¤": 449,
      "Ġà¤Ńà¤ıà¤ķ": 450,
      "à¥Įà¤Ĥ": 451,
      "à¤°à¤Ń": 452,
      "Ġà¤ıà¤ķ": 453,
      "Ġà¤¤à¤¥": 454,
      "à¤ĩà¤¨": 455,
      "ÂŃâĢ¢": 456,
      "Ġà¤¸à¤¤": 457,
      "à¤ħà¤¨": 458,
      "à¤£à¤ķ": 459,
      "à¤ªà¤®": 460,
      "Ġà¤ªà¤°à¤®": 461,
      "Ġà¤Ńà¤ķ": 462,
      "Ġà¤¯à¤¸": 463,
      "à¤ļà¤¨": 464,
      "à¥ģà¤ģ": 465,
      "à¤ªà¤¦": 466,
      "Ġà¤¤à¤¤": 467,
      "Ġà¤¸à¤°": 468,
      "à¤ķà¤®": 469,
      "Ġà¥§à¥": 470,
      "à¤®à¤¸": 471,
      "à¤ªà¤¸": 472,
      "à¤¨à¤²": 473,
      "à¤¯à¤¹": 474,
      "Ġà¤ħà¤§": 475,
      "à¤ķà¤¨": 476,
      "à¤®à¤¦": 477,
      "Ġà¤µà¤¹": 478,
      "Ġà¤ĩà¤¸": 479,
      "à¤¾,": 480,
      "à¤¹à¤¨": 481,
      "à¤ªà¤ķ": 482,
      "Ġà¤ħà¤¤": 483,
      "Ġà¤²à¤Ĺ": 484,
      "à¥ĩÂŃ": 485,
      "Ġà¤§à¤°": 486,
      "à¤¤à¤¸": 487,
      "à¤¿à¤ĥ": 488,
      "Ġà¤¨à¤¹": 489,
      "Ġà¤µà¤¸": 490,
      "Ġà¤ĩà¤¤": 491,
      "à¤¾à¤ĥ": 492,
      "à¤¤à¤¤": 493,
      "Ġà¤ħà¤ªà¤¨": 494,
      "à¤®à¤²": 495,
      "Ġà¤ªà¤¤": 496,
      "Ġà¤Ľà¤¨": 497,
      "Ġà¤Ĩà¤¤": 498,
      "à¤¤à¤µ": 499,
      "Ġà¥«": 500,
      "à¤°à¤ľ": 501,
      "à¤Ńà¤Ĺà¤µ": 502,
      "à¤°à¤¯": 503,
      "Ġà¤¬à¤¸": 504,
      "Ġà¤¬à¤¹": 505,
      "Ġà¤¶à¤°": 506,
      "à¤®à¤¤": 507,
      "Ġà¤ĩà¤¨": 508,
      "Ġà¤Ĩà¤¦": 509,
      "Ġà¤īà¤¹": 510,
      "Ġà¤īà¤¨à¤ķ": 511,
      "Ġà¤¸à¤¹": 512,
      "Ġà¤¡": 513,
      "Ġà¤Ī": 514,
      "Ġà¤¸à¤¨": 515,
      "à¤§à¤¨": 516,
      "Ġà¤ķà¤²": 517,
      "Ġà¤¹à¤°": 518,
      "Ġà¤¹à¤ľ": 519,
      "à¤¤à¤²": 520,
      "à¤ĵ": 521,
      "à¤¦à¤Ľà¤¨": 522,
      "Ġà¤Ł": 523,
      "à¥ĭ,": 524,
      "à¤¦à¤¨": 525,
      "à¤²à¤¨": 526,
      "à¥¬": 527,
      "Ġà¤¸à¤Ń": 528,
      "à¤·à¤£": 529,
      "Ġà¤¯à¤¦": 530,
      "à¤Ĺà¤®": 531,
      "à¥¨": 532,
      "à¤¥à¤®": 533,
      "Â¯": 534,
      "Ġà¤¦à¤ķ": 535,
      "à¥§à¥": 536,
      "à¤ħà¤°": 537,
      "à¤¦à¤ķ": 538,
      "à¤Ńà¤ıà¤ķ": 539,
      "à¤®à¤®": 540,
      "à¤¬à¤¨": 541,
      "Ġà¤īà¤¸": 542,
      "à¤°à¤ª": 543,
      "Ġà¥¨": 544,
      "à¤¨à¤¤": 545,
      "Ġà¤ķà¤°à¤¤": 546,
      "à¤¾-": 547,
      "Ġà¤ķà¤¸": 548,
      "à¤¬à¤²": 549,
      "Ġà¤ļà¤²": 550,
      "à¤ľà¤²": 551,
      "à¤¶à¤¨": 552,
      "Ġà¤Ĺà¤¯": 553,
      "à¤§à¤°": 554,
      "Ġà¤īà¤ª": 555,
      "à¤µà¤®": 556,
      "Ġà¤ħà¤¸": 557,
      "à¤ľà¤¸": 558,
      "Ġà¤īà¤¦": 559,
      "à¥ģà¤Ĥ": 560,
      "à¥ĢÂŃ": 561,
      "à¤£à¤²": 562,
      "à¤Ĺà¤¨": 563,
      "Ġà¤ħà¤¦": 564,
      "à¤¾Â·": 565,
      "à¤Ĺà¤²": 566,
      "à¤µà¤¶": 567,
      "Ġà¤Ĺà¤¨": 568,
      "Ġà¤¯à¤ľ": 569,
      "Ġà¤·": 570,
      "à¤Łà¤ķ": 571,
      "à¤µà¤¯": 572,
      "Ġà¤¢": 573,
      "Ġà¤®à¤²": 574,
      "Ġà¤ªà¤Ľ": 575,
      "à¤°à¤¶": 576,
      "Ġà¥©": 577,
      "à¤¦à¤®": 578,
      "à¤Ĩà¤«": 579,
      "à¥ģà¤ĥ": 580,
      "à¤ªà¤²": 581,
      "Ġà¤ľà¤¸": 582,
      "à¤·à¤¤": 583,
      "Ġà¤¨à¤®": 584,
      "Ġà¤¸à¤µ": 585,
      "Ġà¤ľà¤²": 586,
      "à¤¯à¤¹à¤°": 587,
      "Ġà¤Ńà¤ı": 588,
      "à¤µà¤ľ": 589,
      "Ġà¥§": 590,
      "Ġà¤ªà¤¹": 591,
      "à¥Ī,": 592,
      "à¤¯à¤²": 593,
      "Ġà¤ķà¤¨": 594,
      "à¥Įà¤ģ": 595,
      "Ġà¤ªà¤µ": 596,
      "à¥įâĢĮÂŃ": 597,
      "à¤īà¤Ł": 598,
      "à¤¶à¤ķ": 599,
      "à¥Ĥà¤Ĥ": 600,
      "Ġà¤Ŀ": 601,
      "à¤°à¤¬": 602,
      "à¥©": 603,
      "à¤ķà¤Ĺ": 604,
      "à¥ĭ.": 605,
      "à¤²à¤²": 606,
      "à¤Ńà¤µ": 607,
      "Ġà¤ªà¤¶": 608,
      "Ġà¤Ńà¤ıà¤°": 609,
      "à¤£à¤Ń": 610,
      "Ġà¤īà¤¸à¤ķ": 611,
      "à¥ª": 612,
      "à¤¹à¤ķ": 613,
      "Ġà¤ħà¤¹": 614,
      "Ġà¤¬à¤¢": 615,
      "Ġà¤ıà¤īà¤Ł": 616,
      "à¥§": 617,
      "à¤®à¤°": 618,
      "à¤¬à¤¤": 619,
      "Ġà¤¶à¤ķ": 620,
      "à¤¸à¤µ": 621,
      "à¤¶à¤®": 622,
      "à¤°à¤¸à¤¨": 623,
      "à¤¨à¤¸": 624,
      "à¤¯à¤µ": 625,
      "à¤£à¤¨": 626,
      "Ġà¤Ĩà¤¶": 627,
      "Ġà¤ķà¤¥": 628,
      "à¤ļà¤²": 629,
      "Ġà¤Ĩà¤ª": 630,
      "à¤īà¤¦": 631,
      "Ġà¤Ĳ": 632,
      "à¤¿à¤ģ": 633,
      "Ġà¤¸à¤¦": 634,
      "à¤ľà¤®": 635,
      "Ġà¤ĺà¤°": 636,
      "à¥«": 637,
      "à¤¨à¤Ńà¤¨": 638,
      "Ġà¤Ĺà¤ı": 639,
      "à¤¼à¤¾": 640,
      "à¤¯à¤£": 641,
      "Ġà¤¬à¤¤": 642,
      "Ġà¤¦à¤°": 643,
      "Ġà¤Ĩà¤¯": 644,
      "à¤¯à¤¦": 645,
      "à¥Ń": 646,
      "à¥ĢÂ·": 647,
      "à¤µà¤ª": 648,
      "Ġà¤«à¤²": 649,
      "à¤¸à¤¤": 650,
      "à¤ķà¤ª": 651,
      "à¤ļà¤°": 652,
      "Ġà¤ªà¤ł": 653,
      "Ġà¤¹à¤¨": 654,
      "Ġà¤ħà¤Ĺ": 655,
      "à¤¾ÂŃâĢ¢": 656,
      "à¤¤à¤ª": 657,
      "à¤¹à¤²": 658,
      "Ġà¤ĭ": 659,
      "à¤¹à¤¸": 660,
      "Ġà¤®à¤§": 661,
      "à¤·à¤¯": 662,
      "Ġà¤ħà¤ª": 663,
      "à¤¨à¤µ": 664,
      "à¤¶à¤°": 665,
      "Ġà¤ĩà¤ļ": 666,
      "Ġà¤Ĩà¤ľ": 667,
      "Ġà¤īà¤¸à¤²": 668,
      "Ġà¤ļà¤°": 669,
      "à¤Ĺà¤µà¤¤": 670,
      "Ġà¤ªà¤¦": 671,
      "Ġà¤¤à¤¬": 672,
      "Ġà¤ľà¤¬": 673,
      "Ġà¤®à¤¤": 674,
      "à¤¨à¤¹": 675,
      "Ġà¤¤à¤ª": 676,
      "à¤Ĺà¤ķ": 677,
      "à¤®à¤¯": 678,
      "à¤ļà¤ķ": 679,
      "à¤²à¤¤": 680,
      "Ġà¤ªà¤¢": 681,
      "Ġà¤ħà¤Ń": 682,
      "à¤¦à¤¯": 683,
      "à¤ľà¤ķ": 684,
      "Ġà¤¬à¤²": 685,
      "à¤°à¤¹à¤¨": 686,
      "à¤·à¤ķ": 687,
      "Ġà¤Īà¤¶": 688,
      "à¤¨à¤ª": 689,
      "à¤Ĺà¤¯": 690,
      "à¤°à¤ķà¤Ł": 691,
      "à¤®à¤§": 692,
      "à¤¦à¤¶": 693,
      "à¤ªà¤¢": 694,
      "à¥®": 695,
      "Ġà¤ıà¤µ": 696,
      "à¥¯": 697,
      "à¤¾.": 698,
      "à¤°à¤·": 699,
      "à¤ķà¤°à¤£": 700,
      "à¤¯à¤ª": 701,
      "Ġà¤ħà¤µ": 702,
      "Ġà¤®à¤°": 703,
      "à¤ķà¤¸": 704,
      "à¥Īà¤ģ": 705,
      "Ġà¤¸à¤®à¤¯": 706,
      "Ġà¤ľà¤Ĺ": 707,
      "à¤¿Â·": 708,
      "à¤µà¤¦": 709,
      "à¤¸à¤¹à¤°": 710,
      "à¤°à¤¥à¤®": 711,
      "Ġà¤ħà¤®": 712,
      "à¤ªà¤¶": 713,
      "à¤°à¤°": 714,
      "à¤¥à¤ķ": 715,
      "à¤ļà¤¯": 716,
      "Ġà¤Ĩà¤§": 717,
      "Ġà¥ª": 718,
      "à¤°à¤¹à¤°": 719,
      "Ġà¤ĵ": 720,
      "à¤ĩà¤¬à¤²": 721,
      "à¥¥": 722,
      "Ġà¤ħà¤²": 723,
      "à¤ļà¤®": 724,
      "Ġà¤ľà¤Ĺà¤¤": 725,
      "Ġà¤¯à¤¤": 726,
      "à¤«à¤²": 727,
      "à¤¸à¤¹": 728,
      "Ġà¤ļà¤¢": 729,
      "à¤¤à¤¦": 730,
      "Ġà¤ķà¤®": 731,
      "à¤°à¤ļ": 732,
      "Ġà¤¤à¤¸": 733,
      "à¤¥à¤¨": 734,
      "Ġà¤Ĩà¤°": 735,
      "Ġà¤īà¤ł": 736,
      "Ġà¤²à¤ķ": 737,
      "à¤īà¤¤": 738,
      "Ġà¤°à¤¹à¤¨": 739,
      "à¤¨à¤°": 740,
      "à¤¿-": 741,
      "Ġà¤¸à¤Ļ": 742,
      "à¤Ńà¤ķ": 743,
      "à¤¯à¤¸à¤ķ": 744,
      "Ġà¤ħà¤¬": 745,
      "Ġà¤°à¤ķ": 746,
      "à¤¡à¤²": 747,
      "Ġà¤¯à¤¥": 748,
      "Ġà¤ķà¤·": 749,
      "à¥ĪÂŃ": 750,
      "à¤ĩà¤¤": 751,
      "à¤Łà¤¨": 752,
      "Ġà¤§à¤¨": 753,
      "Â¯Â¯": 754,
      "à¥Ģ,": 755,
      "à¤µà¤¹": 756,
      "Ġà¤¨à¤Ĺà¤°": 757,
      "à¤īà¤²": 758,
      "à¤¤à¤¹à¤°": 759,
      "Ġà¤¬à¤¡": 760,
      "à¤²à¤Ĺ": 761,
      "à¤§à¤¤": 762,
      "à¤§à¤ķ": 763,
      "à¤¨à¤ķà¤°": 764,
      "Ġà¤¸à¤¹à¤°": 765,
      "à¤§à¤®": 766,
      "Ġà¤ľà¤¤": 767,
      "Ġà¤ľà¤¹": 768,
      "Ġà¤¨à¤°": 769,
      "à¤ķà¤¤": 770,
      "à¤®à¤ª": 771,
      "à¥ģÂŃ": 772,
      "à¤µà¤°à¤ķ": 773,
      "Ġà¤ľà¤¸à¤²": 774,
      "à¤¬à¤°": 775,
      "à¤£à¤®": 776,
      "à¤ľà¤¯": 777,
      "Ġà¥§à¥¬": 778,
      "Ġà¤¹à¤®": 779,
      "Ġà¤¬à¤°": 780,
      "Ġà¤ħà¤ĺ": 781,
      "à¤¬à¤¹": 782,
      "à¤ªà¤¸à¤µ": 783,
      "Ġà¤Ĳà¤¸": 784,
      "Ġà¤ĭà¤·": 785,
      "à¤°à¤¥": 786,
      "Ġà¤®à¤¯": 787,
      "à¤·à¤®": 788,
      "Ġà¤ħà¤µà¤¸": 789,
      "à¤ķà¤¹": 790,
      "à¤¸à¤¦": 791,
      "à¤ĸà¤¤": 792,
      "à¤¶à¤¤": 793,
      "à¤ĩà¤¦": 794,
      "à¥įÂŃ": 795,
      "à¤¥à¤²": 796,
      "Ġà¤¤à¤ªà¤¸": 797,
      "Ġà¤¯à¤¸à¤°": 798,
      "à¤¸à¤¬": 799,
      "Ġà¤Ĩà¤ªà¤ķ": 800,
      "à¤¯à¤¶": 801,
      "à¤¯à¤°": 802,
      "à¤ªà¤°à¤®": 803,
      "Ġà¤¤à¤°": 804,
      "à¤¨à¤¦": 805,
      "à¤ķà¤ķ": 806,
      "à¤Ĺà¤£": 807,
      "Ġà¤ļà¤¨": 808,
      "à¤°à¤ĸ": 809,
      "à¤®à¤°à¤£": 810,
      "Ġà¤¦à¤¦": 811,
      "à¤§à¤ª": 812,
      "à¤¯à¤ľ": 813,
      "Ġà¤¤à¤°à¤¹": 814,
      "Ġà¤ħà¤ľ": 815,
      "Ġà¤Ńà¤µ": 816,
      "Ġà¤¸à¤ª": 817,
      "Ġà¤ħà¤ķ": 818,
      "à¤Ĭ": 819,
      "à¤®à¤µ": 820,
      "à¤²à¤¸": 821,
      "à¤ªà¤£": 822,
      "Ġà¤ªà¤ķ": 823,
      "à¤·à¤¨": 824,
      "Ġà¤¦à¤¶": 825,
      "Ġà¤ħà¤µà¤¤": 826,
      "à¤¤à¤¯": 827,
      "à¤ľà¤°": 828,
      "Ġà¤Ńà¤°": 829,
      "à¥ľ": 830,
      "à¥ĩ,": 831,
      "à¤¹à¤¤": 832,
      "à¥Īà¤ĥ": 833,
      "à¤ķà¤·": 834,
      "à¤®à¤ľ": 835,
      "à¤µà¤µ": 836,
      "à¤¯à¤¸à¤²": 837,
      "Ġ-": 838,
      "à¤¦à¤µ": 839,
      "à¤ıà¤¨": 840,
      "à¤¦à¤²": 841,
      "Ġà¤īà¤ļ": 842,
      "Ġà¤ķà¤°à¤ķ": 843,
      "à¤¶à¤²": 844,
      "Ġà¤¤à¤µ": 845,
      "Ġà¤¶à¤¬": 846,
      "à¤ļà¤°à¤£": 847,
      "à¤īà¤ª": 848,
      "à¤łà¤¤": 849,
      "à¥ĩ-": 850,
      "à¤ķà¤µ": 851,
      "Ġà¤¨à¤¦": 852,
      "à¤·à¤¦": 853,
      "Ġà¥®": 854,
      "à¤Łà¤®": 855,
      "Ġà¥¬": 856,
      "Ġà¥Ń": 857,
      "Ġà¤Ĩà¤Ĺ": 858,
      "à¤¿,": 859,
      "Ġà¤Ĺà¤Ī": 860,
      "Ġà¤¤à¤¯": 861,
      "à¤ĸà¤¨": 862,
      "à¤Ĩà¤¤": 863,
      "Ġà¤«à¤°": 864,
      "à¤ªà¤¯": 865,
      "Ġà¤µà¤ļà¤¨": 866,
      "à¤Ĩà¤ľ": 867,
      "à¥ĩÂ·": 868,
      "à¤¦à¤¸": 869,
      "Ġà¤ķà¤¸à¤°": 870,
      "à¤Ńà¤°": 871,
      "Ġà¤Ĩà¤®": 872,
      "à¤¡à¤ķ": 873,
      "à¥įà¤¾": 874,
      "Ġà¤¶à¤¤": 875,
      "à¥Īà¤Ĥ,": 876,
      "ĠÂŃ": 877,
      "à¤¥à¤µ": 878,
      "ĠÂ¯": 879,
      "Ġà¤¨à¤·": 880,
      "Ġà¤Ĩà¤ķ": 881,
      "Ġà¤Ĩà¤¨à¤¨": 882,
      "à¤¹à¤°à¤£": 883,
      "Ġà¤ľà¤¯": 884,
      "à¤°à¤§": 885,
      "à¤ĩà¤ıà¤ķ": 886,
      "Ġà¤®à¤¨à¤®": 887,
      "Ġà¤®à¤£": 888,
      "Ġà¤¤à¤²": 889,
      "à¤¡à¤®": 890,
      "à¤¡à¤¶": 891,
      "à¤Ĩà¤¯": 892,
      "à¤®à¤¹à¤°": 893,
      "à¤ªà¤ł": 894,
      "à¤¯à¤¸à¤ªà¤Ľ": 895,
      "Ġà¤Ĺà¤¤": 896,
      "à¤ļà¤¤": 897,
      "à¤¡à¤µ": 898,
      "à¤§à¤µ": 899,
      "à¤¯à¤¥": 900,
      "à¤¸à¤¸": 901,
      "à¤¹à¤®": 902,
      "à¤Ĺà¤¦": 903,
      "à¤ľà¤¤": 904,
      "Ġà¤²à¤¡": 905,
      "à¤ªà¤µ": 906,
      "à¤£à¤¸": 907,
      "à¤²à¤¯": 908,
      "à¤·à¤°": 909,
      "à¤ħà¤¤": 910,
      "à¤ĺà¤°": 911,
      "Ġà¤Ĺà¤£": 912,
      "Ġà¤Ĩà¤īà¤¨": 913,
      "à¤ħà¤§": 914,
      "Ġà¤¸à¤²": 915,
      "Ġà¤ļà¤°à¤£": 916,
      "à¤Ķà¤°": 917,
      "à¤µà¤¨à¤ķ": 918,
      "à¤¹à¤ľ": 919,
      "Ġà¤ķà¤ª": 920,
      "Ġà¤¸à¤®à¤¸": 921,
      "à¥įâĢį": 922,
      "Ġà¤¸à¤ķà¤²": 923,
      "à¥Ŀ": 924,
      "à¤¦à¤¥": 925,
      "à¤¯à¤ªà¤¦": 926,
      "à¤Ńà¤®": 927,
      "à¤®à¤Ĺ": 928,
      "Ġà¤Ĩà¤µà¤¶": 929,
      "à¤ĩà¤¸": 930,
      "Ġà¤īà¤¨à¤²": 931,
      "à¤°à¤Ĺ": 932,
      "à¤¨à¤¯": 933,
      "à¤µà¤Ń": 934,
      "à¤¶à¤¯": 935,
      "Ġà¤ľà¤®": 936,
      "Ġà¤ľà¤¸à¤°": 937,
      "à¤¦à¤¤": 938,
      "Ġà¤īà¤ªà¤¦": 939,
      "à¤¯à¤¸à¤°": 940,
      "à¤¯à¤µà¤¸": 941,
      "à¥ģ,": 942,
      "à¤µà¤§": 943,
      "à¤µà¤ļ": 944,
      "Ġà¤ķà¤¤": 945,
      "à¤·à¤²": 946,
      "à¥įâĢĮ,": 947,
      "à¤ķà¤Ł": 948,
      "à¤ħà¤¸": 949,
      "Ġà¤ĩà¤¦": 950,
      "Ġà¤ļà¤¤": 951,
      "Ġà¤Ĩà¤¨": 952,
      "âĢĮ": 953,
      "à¤¯à¤¯": 954,
      "Ġà¤µà¤¨": 955,
      "à¤īà¤®": 956,
      "à¤¤à¤¹": 957,
      "à¤łà¤®": 958,
      "Ġà¤ıà¤¸": 959,
      "à¤·à¤¸": 960,
      "Ġà¤¬à¤ļ": 961,
      "à¤¬à¤¸": 962,
      "Ġà¤īà¤®": 963,
      "à¤ĸà¤°": 964,
      "à¤īà¤¸": 965,
      "Ġà¤ĩà¤¸à¤ķ": 966,
      "âĪ": 967,
      "à¤ķà¤¹à¤°": 968,
      "Ġà¤®à¤¸": 969,
      "Ġà¤¤à¤¦": 970,
      "à¤°à¤£à¤²": 971,
      "âĪĻ": 972,
      "à¤ķà¤¦": 973,
      "Ġà¤ķà¤ł": 974,
      "à¥¤à¥¤": 975,
      "Ġà¤¸à¤ķà¤¤": 976,
      "à¤ħà¤®": 977,
      "à¤ľà¤Ĺ": 978,
      "Ġà¤Ńà¤ĩ": 979,
      "à¤ĸà¤ķ": 980,
      "Ġà¤¬à¤¦": 981,
      "à¤ħà¤¦": 982,
      "à¤¤à¤¥": 983,
      "à¥¬à¥¦": 984,
      "Ġà¥©à¥¦": 985,
      "à¤¨à¤¬": 986,
      "à¥ģ-": 987,
      "Ġà¤¤à¤¨": 988,
      "Ġà¤¤à¤ķ": 989,
      "à¤°à¤£à¤®": 990,
      "Ġà¤Ĩà¤ļ": 991,
      "à¤ĸà¤®": 992,
      "à¤°à¤¹à¤£": 993,
      "Ġà¤ķà¤¹à¤¤": 994,
      "à¥ĭà¤ĥ": 995,
      "à¥ĩà¤ĥ": 996,
      "à¤µà¤¯à¤®": 997,
      "Ġà¤¨à¤Ń": 998,
      "à¤ĩà¤¬": 999
    },
    "merges": [
      [
        "à",
        "¤"
      ],
      [
        "à",
        "¥"
      ],
      [
        "Ġ",
        "à¤"
      ],
      [
        "à¤",
        "¾"
      ],
      [
        "à¥",
        "į"
      ],
      [
        "à¤",
        "°"
      ],
      [
        "à¤",
        "¨"
      ],
      [
        "à¤",
        "¿"
      ],
      [
        "à¤",
        "¤"
      ],
      [
        "à¥",
        "ĩ"
      ],
      [
        "à¤",
        "ķ"
      ],
      [
        "à¤",
        "®"
      ],
      [
        "à¥",
        "ĭ"
      ],
      [
        "à¤",
        "¯"
      ],
      [
        "à¥",
        "ģ"
      ],
      [
        "à¥",
        "Ģ"
      ],
      [
        "à¤",
        "²"
      ],
      [
        "à¤",
        "µ"
      ],
      [
        "à¤",
        "¸"
      ],
      [
        "à¤",
        "¹"
      ],
      [
        "à¤",
        "¦"
      ],
      [
        "à¤",
        "ª"
      ],
      [
        "Ġà¤",
        "¸"
      ],
      [
        "Ġà¤",
        "ķ"
      ],
      [
        "à¤",
        "Ĥ"
      ],
      [
        "Ġà¤",
        "ª"
      ],
      [
        "à¤",
        "Ĺ"
      ],
      [
        "à¥",
        "Ī"
      ],
      [
        "Ġà¤",
        "®"
      ],
      [
        "à¤",
        "ľ"
      ],
      [
        "à¤",
        "·"
      ],
      [
        "Ġà¤",
        "¹"
      ],
      [
        "à¥",
        "Ĥ"
      ],
      [
        "Ġà¤",
        "Ń"
      ],
      [
        "à¤",
        "£"
      ],
      [
        "à¤",
        "¶"
      ],
      [
        "Ġà¤",
        "Ĺ"
      ],
      [
        "Ġà¤",
        "¤"
      ],
      [
        "à¤",
        "Ń"
      ],
      [
        "Ġà¤",
        "µ"
      ],
      [
        "Â",
        "Ń"
      ],
      [
        "Ġà¤",
        "¬"
      ],
      [
        "à¤",
        "Ľ"
      ],
      [
        "Ġà¤",
        "¦"
      ],
      [
        "à¤",
        "§"
      ],
      [
        "Ġà¤",
        "ħ"
      ],
      [
        "à¤",
        "¬"
      ],
      [
        "à¤",
        "¥"
      ],
      [
        "Ġà¤",
        "¶"
      ],
      [
        "à¤",
        "ļ"
      ],
      [
        "Ġà¤",
        "ľ"
      ],
      [
        "Ġà¤",
        "¨"
      ],
      [
        "à¤",
        "Ł"
      ],
      [
        "Ġà¤",
        "°"
      ],
      [
        "à¤",
        "Ī"
      ],
      [
        "Ġ",
        "à¥"
      ],
      [
        "Ġà¤Ĺ",
        "à¤°"
      ],
      [
        "à¤",
        "ı"
      ],
      [
        "à¤",
        "ģ"
      ],
      [
        "à¥",
        "ĥ"
      ],
      [
        "Ġà¤",
        "Ĩ"
      ],
      [
        "Ġà¤",
        "ī"
      ],
      [
        "Ġà¤",
        "¯"
      ],
      [
        "à¤",
        "ĸ"
      ],
      [
        "Ġà¤",
        "²"
      ],
      [
        "à¤¹",
        "à¤°"
      ],
      [
        "à¤",
        "¡"
      ],
      [
        "à¤",
        "ĥ"
      ],
      [
        "à¤",
        "ī"
      ],
      [
        "Ġà¤Ń",
        "à¤¨"
      ],
      [
        "à¤",
        "ĩ"
      ],
      [
        "Ġà¤",
        "ļ"
      ],
      [
        "à¥",
        "Į"
      ],
      [
        "à¤°",
        "à¤®"
      ],
      [
        "Ġà¤ķ",
        "à¤°"
      ],
      [
        "à¤Ĺ",
        "à¤µ"
      ],
      [
        "à¤°",
        "à¤ķ"
      ],
      [
        "Ġà¥",
        "¤"
      ],
      [
        "à¤",
        "«"
      ],
      [
        "à¤",
        "ħ"
      ],
      [
        "à¤",
        "ł"
      ],
      [
        "â",
        "Ģ"
      ],
      [
        "Ġà¤¸",
        "à¤®"
      ],
      [
        "à¤ı",
        "à¤ķ"
      ],
      [
        "à¤¯",
        "à¤¸"
      ],
      [
        "à¤¾",
        "à¤ģ"
      ],
      [
        "Ġà¤",
        "ĩ"
      ],
      [
        "à¤¨",
        "à¤ķ"
      ],
      [
        "à¥ĩ",
        "à¤Ĥ"
      ],
      [
        "à¤°",
        "à¤¹"
      ],
      [
        "à¤",
        "ŀ"
      ],
      [
        "Ġà¤",
        "Ľ"
      ],
      [
        "à¥ĭ",
        "à¤Ĥ"
      ],
      [
        "Ġà¤Ń",
        "à¤Ĺà¤µ"
      ],
      [
        "à¤¾",
        "à¤Ĥ"
      ],
      [
        "à¤°",
        "à¤¤"
      ],
      [
        "à¤°",
        "à¤£"
      ],
      [
        "Ġà¤ª",
        "à¤¨"
      ],
      [
        "Ġà¤",
        "¥"
      ],
      [
        "Ġà¤ª",
        "à¤°"
      ],
      [
        "à¤¾",
        "ÂŃ"
      ],
      [
        "à¤",
        "Ĩ"
      ],
      [
        "Ġà¤",
        "§"
      ],
      [
        "à¤ª",
        "à¤¨"
      ],
      [
        "à¤µ",
        "à¤°"
      ],
      [
        "à¤¦",
        "à¤Ľ"
      ],
      [
        "à¤ķ",
        "à¤°"
      ],
      [
        "à¤µ",
        "à¤¤"
      ],
      [
        "à¥",
        "¤"
      ],
      [
        "à¤Ĺ",
        "à¤°"
      ],
      [
        "Ġà¤ħ",
        "à¤¨"
      ],
      [
        "à¥Ī",
        "à¤Ĥ"
      ],
      [
        "à¤",
        "ĺ"
      ],
      [
        "Â",
        "·"
      ],
      [
        "Ġà¤®",
        "à¤¨"
      ],
      [
        "à¤ª",
        "à¤°"
      ],
      [
        "à¤¯",
        "à¤ķ"
      ],
      [
        "à¥į",
        "âĢ"
      ],
      [
        "Ķ",
        "à¤°"
      ],
      [
        "à¤¸",
        "à¤ķ"
      ],
      [
        "à¤",
        "¢"
      ],
      [
        "Ġà¤®",
        "à¤¹"
      ],
      [
        "Ġà¤",
        "ı"
      ],
      [
        "Ġà¤",
        "ĸ"
      ],
      [
        "à¥įâĢ",
        "Į"
      ],
      [
        "Ġà¤",
        "Ķà¤°"
      ],
      [
        "à¤¸",
        "à¤®"
      ],
      [
        "Ġà¥",
        "¥"
      ],
      [
        "à¤ª",
        "à¤¤"
      ],
      [
        "à¤¯",
        "à¤®"
      ],
      [
        "à¤¿",
        "à¤Ĥ"
      ],
      [
        "à¤ī",
        "à¤¨"
      ],
      [
        "à¤ľ",
        "à¤¨"
      ],
      [
        "à¤°",
        "à¤¸"
      ],
      [
        "à¤",
        "Ļ"
      ],
      [
        "Ġà¤",
        "«"
      ],
      [
        "Ġà¥¤",
        "à¥¤"
      ],
      [
        "à¤µ",
        "à¤¨"
      ],
      [
        "Ġà¤°",
        "à¤¹"
      ],
      [
        "à¤Ń",
        "à¤¨"
      ],
      [
        "Ġà¤",
        "ĺ"
      ],
      [
        "à¤Ń",
        "à¤¯"
      ],
      [
        "à¤®",
        "à¤¨"
      ],
      [
        "Ġà¤ħ",
        "à¤°"
      ],
      [
        "Ġà¤Ĩ",
        "à¤«"
      ],
      [
        "à¤¸",
        "à¤²"
      ],
      [
        "Ġà¤¸",
        "à¤ķ"
      ],
      [
        "à¤¤",
        "à¤®"
      ],
      [
        "à¤¯",
        "à¤¤"
      ],
      [
        "Ġà¤¬",
        "à¤¨"
      ],
      [
        "à¤¸",
        "à¤°"
      ],
      [
        "âĢ",
        "¢"
      ],
      [
        "Ġà¤¸",
        "à¤¬"
      ],
      [
        "à¤¨",
        "à¤®"
      ],
      [
        "à¤°",
        "à¤¦"
      ],
      [
        "Ġà¤Ń",
        "à¤¯"
      ],
      [
        "à¤¿",
        "ÂŃ"
      ],
      [
        "à¤¨",
        "à¤¨"
      ],
      [
        "à¤µ",
        "à¤¸"
      ],
      [
        "§",
        "à¥"
      ],
      [
        "à¤¯",
        "à¤¨"
      ],
      [
        "à¥ĭ",
        "ÂŃ"
      ],
      [
        "à¤²",
        "à¤ķ"
      ],
      [
        "à¤®",
        "à¤¹"
      ],
      [
        "à¤¤",
        "à¤°"
      ],
      [
        "à¤Ľ",
        "à¤¨"
      ],
      [
        "à¤µ",
        "à¤ķ"
      ],
      [
        "à¤µ",
        "à¤²"
      ],
      [
        "à¤®",
        "à¤ķ"
      ],
      [
        "à¤ª",
        "à¤Ľ"
      ],
      [
        "Ġà¤ī",
        "à¤¨"
      ],
      [
        "Ġà¤",
        "ł"
      ],
      [
        "à¤²",
        "à¤®"
      ],
      [
        "à¥",
        "¦"
      ],
      [
        "à¤¸",
        "à¤¨"
      ],
      [
        "à¤",
        "Ŀ"
      ],
      [
        "Ġà¤¯",
        "à¤¹"
      ],
      [
        "à¥Ģ",
        "à¤Ĥ"
      ],
      [
        "à¤ı",
        "à¤°"
      ],
      [
        "à¤°",
        "à¤µ"
      ],
      [
        "à¤",
        "¼"
      ],
      [
        "à¤®",
        "à¤£"
      ],
      [
        "à¤¦",
        "à¤°"
      ],
      [
        "Ġà¤ķ",
        "à¤¹"
      ],
      [
        "à¤°",
        "à¤²"
      ],
      [
        "à¤¤",
        "à¤ķ"
      ],
      [
        "Ġà¤ī",
        "à¤¤"
      ],
      [
        "Ġà¤µ",
        "à¤°"
      ],
      [
        "à¤°",
        "à¤¨"
      ],
      [
        "à¤ķ",
        "à¤²"
      ],
      [
        "à¤¤",
        "à¤¨"
      ],
      [
        "Ġà¤ķà¤°",
        "à¤¨"
      ],
      [
        "Ġà¤ľ",
        "à¤¨"
      ],
      [
        "à¤Ĺ",
        "à¤¤"
      ],
      [
        "Ġà¤Ń",
        "à¤ıà¤ķ"
      ],
      [
        "à¥Į",
        "à¤Ĥ"
      ],
      [
        "à¤°",
        "à¤Ń"
      ],
      [
        "Ġà¤ı",
        "à¤ķ"
      ],
      [
        "Ġà¤¤",
        "à¤¥"
      ],
      [
        "à¤ĩ",
        "à¤¨"
      ],
      [
        "ÂŃ",
        "âĢ¢"
      ],
      [
        "Ġà¤¸",
        "à¤¤"
      ],
      [
        "à¤ħ",
        "à¤¨"
      ],
      [
        "à¤£",
        "à¤ķ"
      ],
      [
        "à¤ª",
        "à¤®"
      ],
      [
        "Ġà¤ª",
        "à¤°à¤®"
      ],
      [
        "Ġà¤Ń",
        "à¤ķ"
      ],
      [
        "Ġà¤¯",
        "à¤¸"
      ],
      [
        "à¤ļ",
        "à¤¨"
      ],
      [
        "à¥ģ",
        "à¤ģ"
      ],
      [
        "à¤ª",
        "à¤¦"
      ],
      [
        "Ġà¤¤",
        "à¤¤"
      ],
      [
        "Ġà¤¸",
        "à¤°"
      ],
      [
        "à¤ķ",
        "à¤®"
      ],
      [
        "Ġà¥",
        "§à¥"
      ],
      [
        "à¤®",
        "à¤¸"
      ],
      [
        "à¤ª",
        "à¤¸"
      ],
      [
        "à¤¨",
        "à¤²"
      ],
      [
        "à¤¯",
        "à¤¹"
      ],
      [
        "Ġà¤ħ",
        "à¤§"
      ],
      [
        "à¤ķ",
        "à¤¨"
      ],
      [
        "à¤®",
        "à¤¦"
      ],
      [
        "Ġà¤µ",
        "à¤¹"
      ],
      [
        "Ġà¤ĩ",
        "à¤¸"
      ],
      [
        "à¤¾",
        ","
      ],
      [
        "à¤¹",
        "à¤¨"
      ],
      [
        "à¤ª",
        "à¤ķ"
      ],
      [
        "Ġà¤ħ",
        "à¤¤"
      ],
      [
        "Ġà¤²",
        "à¤Ĺ"
      ],
      [
        "à¥ĩ",
        "ÂŃ"
      ],
      [
        "Ġà¤§",
        "à¤°"
      ],
      [
        "à¤¤",
        "à¤¸"
      ],
      [
        "à¤¿",
        "à¤ĥ"
      ],
      [
        "Ġà¤¨",
        "à¤¹"
      ],
      [
        "Ġà¤µ",
        "à¤¸"
      ],
      [
        "Ġà¤ĩ",
        "à¤¤"
      ],
      [
        "à¤¾",
        "à¤ĥ"
      ],
      [
        "à¤¤",
        "à¤¤"
      ],
      [
        "Ġà¤ħ",
        "à¤ªà¤¨"
      ],
      [
        "à¤®",
        "à¤²"
      ],
      [
        "Ġà¤ª",
        "à¤¤"
      ],
      [
        "Ġà¤Ľ",
        "à¤¨"
      ],
      [
        "Ġà¤Ĩ",
        "à¤¤"
      ],
      [
        "à¤¤",
        "à¤µ"
      ],
      [
        "Ġà¥",
        "«"
      ],
      [
        "à¤°",
        "à¤ľ"
      ],
      [
        "à¤Ń",
        "à¤Ĺà¤µ"
      ],
      [
        "à¤°",
        "à¤¯"
      ],
      [
        "Ġà¤¬",
        "à¤¸"
      ],
      [
        "Ġà¤¬",
        "à¤¹"
      ],
      [
        "Ġà¤¶",
        "à¤°"
      ],
      [
        "à¤®",
        "à¤¤"
      ],
      [
        "Ġà¤ĩ",
        "à¤¨"
      ],
      [
        "Ġà¤Ĩ",
        "à¤¦"
      ],
      [
        "Ġà¤ī",
        "à¤¹"
      ],
      [
        "Ġà¤ī",
        "à¤¨à¤ķ"
      ],
      [
        "Ġà¤¸",
        "à¤¹"
      ],
      [
        "Ġà¤",
        "¡"
      ],
      [
        "Ġà¤",
        "Ī"
      ],
      [
        "Ġà¤¸",
        "à¤¨"
      ],
      [
        "à¤§",
        "à¤¨"
      ],
      [
        "Ġà¤ķ",
        "à¤²"
      ],
      [
        "Ġà¤¹",
        "à¤°"
      ],
      [
        "Ġà¤¹",
        "à¤ľ"
      ],
      [
        "à¤¤",
        "à¤²"
      ],
      [
        "à¤",
        "ĵ"
      ],
      [
        "à¤¦à¤Ľ",
        "à¤¨"
      ],
      [
        "Ġà¤",
        "Ł"
      ],
      [
        "à¥ĭ",
        ","
      ],
      [
        "à¤¦",
        "à¤¨"
      ],
      [
        "à¤²",
        "à¤¨"
      ],
      [
        "à¥",
        "¬"
      ],
      [
        "Ġà¤¸",
        "à¤Ń"
      ],
      [
        "à¤·",
        "à¤£"
      ],
      [
        "Ġà¤¯",
        "à¤¦"
      ],
      [
        "à¤Ĺ",
        "à¤®"
      ],
      [
        "à¥",
        "¨"
      ],
      [
        "à¤¥",
        "à¤®"
      ],
      [
        "Â",
        "¯"
      ],
      [
        "Ġà¤¦",
        "à¤ķ"
      ],
      [
        "à¥",
        "§à¥"
      ],
      [
        "à¤ħ",
        "à¤°"
      ],
      [
        "à¤¦",
        "à¤ķ"
      ],
      [
        "à¤Ń",
        "à¤ıà¤ķ"
      ],
      [
        "à¤®",
        "à¤®"
      ],
      [
        "à¤¬",
        "à¤¨"
      ],
      [
        "Ġà¤ī",
        "à¤¸"
      ],
      [
        "à¤°",
        "à¤ª"
      ],
      [
        "Ġà¥",
        "¨"
      ],
      [
        "à¤¨",
        "à¤¤"
      ],
      [
        "Ġà¤ķà¤°",
        "à¤¤"
      ],
      [
        "à¤¾",
        "-"
      ],
      [
        "Ġà¤ķ",
        "à¤¸"
      ],
      [
        "à¤¬",
        "à¤²"
      ],
      [
        "Ġà¤ļ",
        "à¤²"
      ],
      [
        "à¤ľ",
        "à¤²"
      ],
      [
        "à¤¶",
        "à¤¨"
      ],
      [
        "Ġà¤Ĺ",
        "à¤¯"
      ],
      [
        "à¤§",
        "à¤°"
      ],
      [
        "Ġà¤ī",
        "à¤ª"
      ],
      [
        "à¤µ",
        "à¤®"
      ],
      [
        "Ġà¤ħ",
        "à¤¸"
      ],
      [
        "à¤ľ",
        "à¤¸"
      ],
      [
        "Ġà¤ī",
        "à¤¦"
      ],
      [
        "à¥ģ",
        "à¤Ĥ"
      ],
      [
        "à¥Ģ",
        "ÂŃ"
      ],
      [
        "à¤£",
        "à¤²"
      ],
      [
        "à¤Ĺ",
        "à¤¨"
      ],
      [
        "Ġà¤ħ",
        "à¤¦"
      ],
      [
        "à¤¾",
        "Â·"
      ],
      [
        "à¤Ĺ",
        "à¤²"
      ],
      [
        "à¤µ",
        "à¤¶"
      ],
      [
        "Ġà¤Ĺ",
        "à¤¨"
      ],
      [
        "Ġà¤¯",
        "à¤ľ"
      ],
      [
        "Ġà¤",
        "·"
      ],
      [
        "à¤Ł",
        "à¤ķ"
      ],
      [
        "à¤µ",
        "à¤¯"
      ],
      [
        "Ġà¤",
        "¢"
      ],
      [
        "Ġà¤®",
        "à¤²"
      ],
      [
        "Ġà¤ª",
        "à¤Ľ"
      ],
      [
        "à¤°",
        "à¤¶"
      ],
      [
        "Ġà¥",
        "©"
      ],
      [
        "à¤¦",
        "à¤®"
      ],
      [
        "à¤Ĩ",
        "à¤«"
      ],
      [
        "à¥ģ",
        "à¤ĥ"
      ],
      [
        "à¤ª",
        "à¤²"
      ],
      [
        "Ġà¤ľ",
        "à¤¸"
      ],
      [
        "à¤·",
        "à¤¤"
      ],
      [
        "Ġà¤¨",
        "à¤®"
      ],
      [
        "Ġà¤¸",
        "à¤µ"
      ],
      [
        "Ġà¤ľ",
        "à¤²"
      ],
      [
        "à¤¯",
        "à¤¹à¤°"
      ],
      [
        "Ġà¤Ń",
        "à¤ı"
      ],
      [
        "à¤µ",
        "à¤ľ"
      ],
      [
        "Ġà¥",
        "§"
      ],
      [
        "Ġà¤ª",
        "à¤¹"
      ],
      [
        "à¥Ī",
        ","
      ],
      [
        "à¤¯",
        "à¤²"
      ],
      [
        "Ġà¤ķ",
        "à¤¨"
      ],
      [
        "à¥Į",
        "à¤ģ"
      ],
      [
        "Ġà¤ª",
        "à¤µ"
      ],
      [
        "à¥įâĢĮ",
        "ÂŃ"
      ],
      [
        "à¤ī",
        "à¤Ł"
      ],
      [
        "à¤¶",
        "à¤ķ"
      ],
      [
        "à¥Ĥ",
        "à¤Ĥ"
      ],
      [
        "Ġà¤",
        "Ŀ"
      ],
      [
        "à¤°",
        "à¤¬"
      ],
      [
        "à¥",
        "©"
      ],
      [
        "à¤ķ",
        "à¤Ĺ"
      ],
      [
        "à¥ĭ",
        "."
      ],
      [
        "à¤²",
        "à¤²"
      ],
      [
        "à¤Ń",
        "à¤µ"
      ],
      [
        "Ġà¤ª",
        "à¤¶"
      ],
      [
        "Ġà¤Ń",
        "à¤ıà¤°"
      ],
      [
        "à¤£",
        "à¤Ń"
      ],
      [
        "Ġà¤ī",
        "à¤¸à¤ķ"
      ],
      [
        "à¥",
        "ª"
      ],
      [
        "à¤¹",
        "à¤ķ"
      ],
      [
        "Ġà¤ħ",
        "à¤¹"
      ],
      [
        "Ġà¤¬",
        "à¤¢"
      ],
      [
        "Ġà¤ı",
        "à¤īà¤Ł"
      ],
      [
        "à¥",
        "§"
      ],
      [
        "à¤®",
        "à¤°"
      ],
      [
        "à¤¬",
        "à¤¤"
      ],
      [
        "Ġà¤¶",
        "à¤ķ"
      ],
      [
        "à¤¸",
        "à¤µ"
      ],
      [
        "à¤¶",
        "à¤®"
      ],
      [
        "à¤°à¤¸",
        "à¤¨"
      ],
      [
        "à¤¨",
        "à¤¸"
      ],
      [
        "à¤¯",
        "à¤µ"
      ],
      [
        "à¤£",
        "à¤¨"
      ],
      [
        "Ġà¤Ĩ",
        "à¤¶"
      ],
      [
        "Ġà¤ķ",
        "à¤¥"
      ],
      [
        "à¤ļ",
        "à¤²"
      ],
      [
        "Ġà¤Ĩ",
        "à¤ª"
      ],
      [
        "à¤ī",
        "à¤¦"
      ],
      [
        "Ġà¤",
        "Ĳ"
      ],
      [
        "à¤¿",
        "à¤ģ"
      ],
      [
        "Ġà¤¸",
        "à¤¦"
      ],
      [
        "à¤ľ",
        "à¤®"
      ],
      [
        "Ġà¤ĺ",
        "à¤°"
      ],
      [
        "à¥",
        "«"
      ],
      [
        "à¤¨",
        "à¤Ńà¤¨"
      ],
      [
        "Ġà¤Ĺ",
        "à¤ı"
      ],
      [
        "à¤¼",
        "à¤¾"
      ],
      [
        "à¤¯",
        "à¤£"
      ],
      [
        "Ġà¤¬",
        "à¤¤"
      ],
      [
        "Ġà¤¦",
        "à¤°"
      ],
      [
        "Ġà¤Ĩ",
        "à¤¯"
      ],
      [
        "à¤¯",
        "à¤¦"
      ],
      [
        "à¥",
        "Ń"
      ],
      [
        "à¥Ģ",
        "Â·"
      ],
      [
        "à¤µ",
        "à¤ª"
      ],
      [
        "Ġà¤«",
        "à¤²"
      ],
      [
        "à¤¸",
        "à¤¤"
      ],
      [
        "à¤ķ",
        "à¤ª"
      ],
      [
        "à¤ļ",
        "à¤°"
      ],
      [
        "Ġà¤ª",
        "à¤ł"
      ],
      [
        "Ġà¤¹",
        "à¤¨"
      ],
      [
        "Ġà¤ħ",
        "à¤Ĺ"
      ],
      [
        "à¤¾ÂŃ",
        "âĢ¢"
      ],
      [
        "à¤¤",
        "à¤ª"
      ],
      [
        "à¤¹",
        "à¤²"
      ],
      [
        "Ġà¤",
        "ĭ"
      ],
      [
        "à¤¹",
        "à¤¸"
      ],
      [
        "Ġà¤®",
        "à¤§"
      ],
      [
        "à¤·",
        "à¤¯"
      ],
      [
        "Ġà¤ħ",
        "à¤ª"
      ],
      [
        "à¤¨",
        "à¤µ"
      ],
      [
        "à¤¶",
        "à¤°"
      ],
      [
        "Ġà¤ĩ",
        "à¤ļ"
      ],
      [
        "Ġà¤Ĩ",
        "à¤ľ"
      ],
      [
        "Ġà¤ī",
        "à¤¸à¤²"
      ],
      [
        "Ġà¤ļ",
        "à¤°"
      ],
      [
        "à¤Ĺà¤µ",
        "à¤¤"
      ],
      [
        "Ġà¤ª",
        "à¤¦"
      ],
      [
        "Ġà¤¤",
        "à¤¬"
      ],
      [
        "Ġà¤ľ",
        "à¤¬"
      ],
      [
        "Ġà¤®",
        "à¤¤"
      ],
      [
        "à¤¨",
        "à¤¹"
      ],
      [
        "Ġà¤¤",
        "à¤ª"
      ],
      [
        "à¤Ĺ",
        "à¤ķ"
      ],
      [
        "à¤®",
        "à¤¯"
      ],
      [
        "à¤ļ",
        "à¤ķ"
      ],
      [
        "à¤²",
        "à¤¤"
      ],
      [
        "Ġà¤ª",
        "à¤¢"
      ],
      [
        "Ġà¤ħ",
        "à¤Ń"
      ],
      [
        "à¤¦",
        "à¤¯"
      ],
      [
        "à¤ľ",
        "à¤ķ"
      ],
      [
        "Ġà¤¬",
        "à¤²"
      ],
      [
        "à¤°à¤¹",
        "à¤¨"
      ],
      [
        "à¤·",
        "à¤ķ"
      ],
      [
        "Ġà¤Ī",
        "à¤¶"
      ],
      [
        "à¤¨",
        "à¤ª"
      ],
      [
        "à¤Ĺ",
        "à¤¯"
      ],
      [
        "à¤°à¤ķ",
        "à¤Ł"
      ],
      [
        "à¤®",
        "à¤§"
      ],
      [
        "à¤¦",
        "à¤¶"
      ],
      [
        "à¤ª",
        "à¤¢"
      ],
      [
        "à¥",
        "®"
      ],
      [
        "Ġà¤ı",
        "à¤µ"
      ],
      [
        "à¥",
        "¯"
      ],
      [
        "à¤¾",
        "."
      ],
      [
        "à¤°",
        "à¤·"
      ],
      [
        "à¤ķ",
        "à¤°à¤£"
      ],
      [
        "à¤¯",
        "à¤ª"
      ],
      [
        "Ġà¤ħ",
        "à¤µ"
      ],
      [
        "Ġà¤®",
        "à¤°"
      ],
      [
        "à¤ķ",
        "à¤¸"
      ],
      [
        "à¥Ī",
        "à¤ģ"
      ],
      [
        "Ġà¤¸à¤®",
        "à¤¯"
      ],
      [
        "Ġà¤ľ",
        "à¤Ĺ"
      ],
      [
        "à¤¿",
        "Â·"
      ],
      [
        "à¤µ",
        "à¤¦"
      ],
      [
        "à¤¸",
        "à¤¹à¤°"
      ],
      [
        "à¤°",
        "à¤¥à¤®"
      ],
      [
        "Ġà¤ħ",
        "à¤®"
      ],
      [
        "à¤ª",
        "à¤¶"
      ],
      [
        "à¤°",
        "à¤°"
      ],
      [
        "à¤¥",
        "à¤ķ"
      ],
      [
        "à¤ļ",
        "à¤¯"
      ],
      [
        "Ġà¤Ĩ",
        "à¤§"
      ],
      [
        "Ġà¥",
        "ª"
      ],
      [
        "à¤°",
        "à¤¹à¤°"
      ],
      [
        "Ġà¤",
        "ĵ"
      ],
      [
        "à¤ĩ",
        "à¤¬à¤²"
      ],
      [
        "à¥",
        "¥"
      ],
      [
        "Ġà¤ħ",
        "à¤²"
      ],
      [
        "à¤ļ",
        "à¤®"
      ],
      [
        "Ġà¤ľ",
        "à¤Ĺà¤¤"
      ],
      [
        "Ġà¤¯",
        "à¤¤"
      ],
      [
        "à¤«",
        "à¤²"
      ],
      [
        "à¤¸",
        "à¤¹"
      ],
      [
        "Ġà¤ļ",
        "à¤¢"
      ],
      [
        "à¤¤",
        "à¤¦"
      ],
      [
        "Ġà¤ķ",
        "à¤®"
      ],
      [
        "à¤°",
        "à¤ļ"
      ],
      [
        "Ġà¤¤",
        "à¤¸"
      ],
      [
        "à¤¥",
        "à¤¨"
      ],
      [
        "Ġà¤Ĩ",
        "à¤°"
      ],
      [
        "Ġà¤ī",
        "à¤ł"
      ],
      [
        "Ġà¤²",
        "à¤ķ"
      ],
      [
        "à¤ī",
        "à¤¤"
      ],
      [
        "Ġà¤°à¤¹",
        "à¤¨"
      ],
      [
        "à¤¨",
        "à¤°"
      ],
      [
        "à¤¿",
        "-"
      ],
      [
        "Ġà¤¸",
        "à¤Ļ"
      ],
      [
        "à¤Ń",
        "à¤ķ"
      ],
      [
        "à¤¯à¤¸",
        "à¤ķ"
      ],
      [
        "Ġà¤ħ",
        "à¤¬"
      ],
      [
        "Ġà¤°",
        "à¤ķ"
      ],
      [
        "à¤¡",
        "à¤²"
      ],
      [
        "Ġà¤¯",
        "à¤¥"
      ],
      [
        "Ġà¤ķ",
        "à¤·"
      ],
      [
        "à¥Ī",
        "ÂŃ"
      ],
      [
        "à¤ĩ",
        "à¤¤"
      ],
      [
        "à¤Ł",
        "à¤¨"
      ],
      [
        "Ġà¤§",
        "à¤¨"
      ],
      [
        "Â¯",
        "Â¯"
      ],
      [
        "à¥Ģ",
        ","
      ],
      [
        "à¤µ",
        "à¤¹"
      ],
      [
        "Ġà¤¨",
        "à¤Ĺà¤°"
      ],
      [
        "à¤ī",
        "à¤²"
      ],
      [
        "à¤¤",
        "à¤¹à¤°"
      ],
      [
        "Ġà¤¬",
        "à¤¡"
      ],
      [
        "à¤²",
        "à¤Ĺ"
      ],
      [
        "à¤§",
        "à¤¤"
      ],
      [
        "à¤§",
        "à¤ķ"
      ],
      [
        "à¤¨à¤ķ",
        "à¤°"
      ],
      [
        "Ġà¤¸",
        "à¤¹à¤°"
      ],
      [
        "à¤§",
        "à¤®"
      ],
      [
        "Ġà¤ľ",
        "à¤¤"
      ],
      [
        "Ġà¤ľ",
        "à¤¹"
      ],
      [
        "Ġà¤¨",
        "à¤°"
      ],
      [
        "à¤ķ",
        "à¤¤"
      ],
      [
        "à¤®",
        "à¤ª"
      ],
      [
        "à¥ģ",
        "ÂŃ"
      ],
      [
        "à¤µ",
        "à¤°à¤ķ"
      ],
      [
        "Ġà¤ľ",
        "à¤¸à¤²"
      ],
      [
        "à¤¬",
        "à¤°"
      ],
      [
        "à¤£",
        "à¤®"
      ],
      [
        "à¤ľ",
        "à¤¯"
      ],
      [
        "Ġà¥§à¥",
        "¬"
      ],
      [
        "Ġà¤¹",
        "à¤®"
      ],
      [
        "Ġà¤¬",
        "à¤°"
      ],
      [
        "Ġà¤ħ",
        "à¤ĺ"
      ],
      [
        "à¤¬",
        "à¤¹"
      ],
      [
        "à¤ªà¤¸",
        "à¤µ"
      ],
      [
        "Ġà¤Ĳ",
        "à¤¸"
      ],
      [
        "Ġà¤ĭ",
        "à¤·"
      ],
      [
        "à¤°",
        "à¤¥"
      ],
      [
        "Ġà¤®",
        "à¤¯"
      ],
      [
        "à¤·",
        "à¤®"
      ],
      [
        "Ġà¤ħ",
        "à¤µà¤¸"
      ],
      [
        "à¤ķ",
        "à¤¹"
      ],
      [
        "à¤¸",
        "à¤¦"
      ],
      [
        "à¤ĸ",
        "à¤¤"
      ],
      [
        "à¤¶",
        "à¤¤"
      ],
      [
        "à¤ĩ",
        "à¤¦"
      ],
      [
        "à¥į",
        "ÂŃ"
      ],
      [
        "à¤¥",
        "à¤²"
      ],
      [
        "Ġà¤¤",
        "à¤ªà¤¸"
      ],
      [
        "Ġà¤¯",
        "à¤¸à¤°"
      ],
      [
        "à¤¸",
        "à¤¬"
      ],
      [
        "Ġà¤Ĩ",
        "à¤ªà¤ķ"
      ],
      [
        "à¤¯",
        "à¤¶"
      ],
      [
        "à¤¯",
        "à¤°"
      ],
      [
        "à¤ª",
        "à¤°à¤®"
      ],
      [
        "Ġà¤¤",
        "à¤°"
      ],
      [
        "à¤¨",
        "à¤¦"
      ],
      [
        "à¤ķ",
        "à¤ķ"
      ],
      [
        "à¤Ĺ",
        "à¤£"
      ],
      [
        "Ġà¤ļ",
        "à¤¨"
      ],
      [
        "à¤°",
        "à¤ĸ"
      ],
      [
        "à¤®",
        "à¤°à¤£"
      ],
      [
        "Ġà¤¦",
        "à¤¦"
      ],
      [
        "à¤§",
        "à¤ª"
      ],
      [
        "à¤¯",
        "à¤ľ"
      ],
      [
        "Ġà¤¤",
        "à¤°à¤¹"
      ],
      [
        "Ġà¤ħ",
        "à¤ľ"
      ],
      [
        "Ġà¤Ń",
        "à¤µ"
      ],
      [
        "Ġà¤¸",
        "à¤ª"
      ],
      [
        "Ġà¤ħ",
        "à¤ķ"
      ],
      [
        "à¤",
        "Ĭ"
      ],
      [
        "à¤®",
        "à¤µ"
      ],
      [
        "à¤²",
        "à¤¸"
      ],
      [
        "à¤ª",
        "à¤£"
      ],
      [
        "Ġà¤ª",
        "à¤ķ"
      ],
      [
        "à¤·",
        "à¤¨"
      ],
      [
        "Ġà¤¦",
        "à¤¶"
      ],
      [
        "Ġà¤ħ",
        "à¤µà¤¤"
      ],
      [
        "à¤¤",
        "à¤¯"
      ],
      [
        "à¤ľ",
        "à¤°"
      ],
      [
        "Ġà¤Ń",
        "à¤°"
      ],
      [
        "à¥",
        "ľ"
      ],
      [
        "à¥ĩ",
        ","
      ],
      [
        "à¤¹",
        "à¤¤"
      ],
      [
        "à¥Ī",
        "à¤ĥ"
      ],
      [
        "à¤ķ",
        "à¤·"
      ],
      [
        "à¤®",
        "à¤ľ"
      ],
      [
        "à¤µ",
        "à¤µ"
      ],
      [
        "à¤¯à¤¸",
        "à¤²"
      ],
      [
        "Ġ",
        "-"
      ],
      [
        "à¤¦",
        "à¤µ"
      ],
      [
        "à¤ı",
        "à¤¨"
      ],
      [
        "à¤¦",
        "à¤²"
      ],
      [
        "Ġà¤ī",
        "à¤ļ"
      ],
      [
        "Ġà¤ķà¤°",
        "à¤ķ"
      ],
      [
        "à¤¶",
        "à¤²"
      ],
      [
        "Ġà¤¤",
        "à¤µ"
      ],
      [
        "Ġà¤¶",
        "à¤¬"
      ],
      [
        "à¤ļ",
        "à¤°à¤£"
      ],
      [
        "à¤ī",
        "à¤ª"
      ],
      [
        "à¤ł",
        "à¤¤"
      ],
      [
        "à¥ĩ",
        "-"
      ],
      [
        "à¤ķ",
        "à¤µ"
      ],
      [
        "Ġà¤¨",
        "à¤¦"
      ],
      [
        "à¤·",
        "à¤¦"
      ],
      [
        "Ġà¥",
        "®"
      ],
      [
        "à¤Ł",
        "à¤®"
      ],
      [
        "Ġà¥",
        "¬"
      ],
      [
        "Ġà¥",
        "Ń"
      ],
      [
        "Ġà¤Ĩ",
        "à¤Ĺ"
      ],
      [
        "à¤¿",
        ","
      ],
      [
        "Ġà¤Ĺ",
        "à¤Ī"
      ],
      [
        "Ġà¤¤",
        "à¤¯"
      ],
      [
        "à¤ĸ",
        "à¤¨"
      ],
      [
        "à¤Ĩ",
        "à¤¤"
      ],
      [
        "Ġà¤«",
        "à¤°"
      ],
      [
        "à¤ª",
        "à¤¯"
      ],
      [
        "Ġà¤µ",
        "à¤ļà¤¨"
      ],
      [
        "à¤Ĩ",
        "à¤ľ"
      ],
      [
        "à¥ĩ",
        "Â·"
      ],
      [
        "à¤¦",
        "à¤¸"
      ],
      [
        "Ġà¤ķ",
        "à¤¸à¤°"
      ],
      [
        "à¤Ń",
        "à¤°"
      ],
      [
        "Ġà¤Ĩ",
        "à¤®"
      ],
      [
        "à¤¡",
        "à¤ķ"
      ],
      [
        "à¥į",
        "à¤¾"
      ],
      [
        "Ġà¤¶",
        "à¤¤"
      ],
      [
        "à¥Īà¤Ĥ",
        ","
      ],
      [
        "Ġ",
        "ÂŃ"
      ],
      [
        "à¤¥",
        "à¤µ"
      ],
      [
        "Ġ",
        "Â¯"
      ],
      [
        "Ġà¤¨",
        "à¤·"
      ],
      [
        "Ġà¤Ĩ",
        "à¤ķ"
      ],
      [
        "Ġà¤Ĩ",
        "à¤¨à¤¨"
      ],
      [
        "à¤¹à¤°",
        "à¤£"
      ],
      [
        "Ġà¤ľ",
        "à¤¯"
      ],
      [
        "à¤°",
        "à¤§"
      ],
      [
        "à¤ĩ",
        "à¤ıà¤ķ"
      ],
      [
        "Ġà¤®à¤¨",
        "à¤®"
      ],
      [
        "Ġà¤®",
        "à¤£"
      ],
      [
        "Ġà¤¤",
        "à¤²"
      ],
      [
        "à¤¡",
        "à¤®"
      ],
      [
        "à¤¡",
        "à¤¶"
      ],
      [
        "à¤Ĩ",
        "à¤¯"
      ],
      [
        "à¤®",
        "à¤¹à¤°"
      ],
      [
        "à¤ª",
        "à¤ł"
      ],
      [
        "à¤¯à¤¸",
        "à¤ªà¤Ľ"
      ],
      [
        "Ġà¤Ĺ",
        "à¤¤"
      ],
      [
        "à¤ļ",
        "à¤¤"
      ],
      [
        "à¤¡",
        "à¤µ"
      ],
      [
        "à¤§",
        "à¤µ"
      ],
      [
        "à¤¯",
        "à¤¥"
      ],
      [
        "à¤¸",
        "à¤¸"
      ],
      [
        "à¤¹",
        "à¤®"
      ],
      [
        "à¤Ĺ",
        "à¤¦"
      ],
      [
        "à¤ľ",
        "à¤¤"
      ],
      [
        "Ġà¤²",
        "à¤¡"
      ],
      [
        "à¤ª",
        "à¤µ"
      ],
      [
        "à¤£",
        "à¤¸"
      ],
      [
        "à¤²",
        "à¤¯"
      ],
      [
        "à¤·",
        "à¤°"
      ],
      [
        "à¤ħ",
        "à¤¤"
      ],
      [
        "à¤ĺ",
        "à¤°"
      ],
      [
        "Ġà¤Ĺ",
        "à¤£"
      ],
      [
        "Ġà¤Ĩ",
        "à¤īà¤¨"
      ],
      [
        "à¤ħ",
        "à¤§"
      ],
      [
        "Ġà¤¸",
        "à¤²"
      ],
      [
        "Ġà¤ļ",
        "à¤°à¤£"
      ],
      [
        "à¤",
        "Ķà¤°"
      ],
      [
        "à¤µ",
        "à¤¨à¤ķ"
      ],
      [
        "à¤¹",
        "à¤ľ"
      ],
      [
        "Ġà¤ķ",
        "à¤ª"
      ],
      [
        "Ġà¤¸à¤®",
        "à¤¸"
      ],
      [
        "à¥įâĢ",
        "į"
      ],
      [
        "Ġà¤¸à¤ķ",
        "à¤²"
      ],
      [
        "à¥",
        "Ŀ"
      ],
      [
        "à¤¦",
        "à¤¥"
      ],
      [
        "à¤¯",
        "à¤ªà¤¦"
      ],
      [
        "à¤Ń",
        "à¤®"
      ],
      [
        "à¤®",
        "à¤Ĺ"
      ],
      [
        "Ġà¤Ĩ",
        "à¤µà¤¶"
      ],
      [
        "à¤ĩ",
        "à¤¸"
      ],
      [
        "Ġà¤īà¤¨",
        "à¤²"
      ],
      [
        "à¤°",
        "à¤Ĺ"
      ],
      [
        "à¤¨",
        "à¤¯"
      ],
      [
        "à¤µ",
        "à¤Ń"
      ],
      [
        "à¤¶",
        "à¤¯"
      ],
      [
        "Ġà¤ľ",
        "à¤®"
      ],
      [
        "Ġà¤ľ",
        "à¤¸à¤°"
      ],
      [
        "à¤¦",
        "à¤¤"
      ],
      [
        "Ġà¤ī",
        "à¤ªà¤¦"
      ],
      [
        "à¤¯à¤¸",
        "à¤°"
      ],
      [
        "à¤¯",
        "à¤µà¤¸"
      ],
      [
        "à¥ģ",
        ","
      ],
      [
        "à¤µ",
        "à¤§"
      ],
      [
        "à¤µ",
        "à¤ļ"
      ],
      [
        "Ġà¤ķ",
        "à¤¤"
      ],
      [
        "à¤·",
        "à¤²"
      ],
      [
        "à¥įâĢĮ",
        ","
      ],
      [
        "à¤ķ",
        "à¤Ł"
      ],
      [
        "à¤ħ",
        "à¤¸"
      ],
      [
        "Ġà¤ĩ",
        "à¤¦"
      ],
      [
        "Ġà¤ļ",
        "à¤¤"
      ],
      [
        "Ġà¤Ĩ",
        "à¤¨"
      ],
      [
        "âĢ",
        "Į"
      ],
      [
        "à¤¯",
        "à¤¯"
      ],
      [
        "Ġà¤µ",
        "à¤¨"
      ],
      [
        "à¤ī",
        "à¤®"
      ],
      [
        "à¤¤",
        "à¤¹"
      ],
      [
        "à¤ł",
        "à¤®"
      ],
      [
        "Ġà¤ı",
        "à¤¸"
      ],
      [
        "à¤·",
        "à¤¸"
      ],
      [
        "Ġà¤¬",
        "à¤ļ"
      ],
      [
        "à¤¬",
        "à¤¸"
      ],
      [
        "Ġà¤ī",
        "à¤®"
      ],
      [
        "à¤ĸ",
        "à¤°"
      ],
      [
        "à¤ī",
        "à¤¸"
      ],
      [
        "Ġà¤ĩ",
        "à¤¸à¤ķ"
      ],
      [
        "â",
        "Ī"
      ],
      [
        "à¤ķ",
        "à¤¹à¤°"
      ],
      [
        "Ġà¤®",
        "à¤¸"
      ],
      [
        "Ġà¤¤",
        "à¤¦"
      ],
      [
        "à¤°à¤£",
        "à¤²"
      ],
      [
        "âĪ",
        "Ļ"
      ],
      [
        "à¤ķ",
        "à¤¦"
      ],
      [
        "Ġà¤ķ",
        "à¤ł"
      ],
      [
        "à¥¤",
        "à¥¤"
      ],
      [
        "Ġà¤¸à¤ķ",
        "à¤¤"
      ],
      [
        "à¤ħ",
        "à¤®"
      ],
      [
        "à¤ľ",
        "à¤Ĺ"
      ],
      [
        "Ġà¤Ń",
        "à¤ĩ"
      ],
      [
        "à¤ĸ",
        "à¤ķ"
      ],
      [
        "Ġà¤¬",
        "à¤¦"
      ],
      [
        "à¤ħ",
        "à¤¦"
      ],
      [
        "à¤¤",
        "à¤¥"
      ],
      [
        "à¥¬",
        "à¥¦"
      ],
      [
        "Ġà¥©",
        "à¥¦"
      ],
      [
        "à¤¨",
        "à¤¬"
      ],
      [
        "à¥ģ",
        "-"
      ],
      [
        "Ġà¤¤",
        "à¤¨"
      ],
      [
        "Ġà¤¤",
        "à¤ķ"
      ],
      [
        "à¤°à¤£",
        "à¤®"
      ],
      [
        "Ġà¤Ĩ",
        "à¤ļ"
      ],
      [
        "à¤ĸ",
        "à¤®"
      ],
      [
        "à¤°à¤¹",
        "à¤£"
      ],
      [
        "Ġà¤ķà¤¹",
        "à¤¤"
      ],
      [
        "à¥ĭ",
        "à¤ĥ"
      ],
      [
        "à¥ĩ",
        "à¤ĥ"
      ],
      [
        "à¤µ",
        "à¤¯à¤®"
      ],
      [
        "Ġà¤¨",
        "à¤Ń"
      ],
      [
        "à¤ĩ",
        "à¤¬"
      ]
    ]
  }
}